{"<s>":0,"</s>":1,"<usr>":2,"<pad>":3,"<sys>":4,"<unk>":5,"<unused0>":6,"<unused1>":7,"<unused2>":8,"<unused3>":9,"<unused4>":10,"<unused5>":11,"<unused6>":12,"<unused7>":13,"<unused8>":14,"<unused9>":15,"<unused10>":16,"<unused11>":17,"<unused12>":18,"<unused13>":19,"<unused14>":20,"<unused15>":21,"<unused16>":22,"<unused17>":23,"<unused18>":24,"<unused19>":25,"<unused20>":26,"<unused21>":27,"<unused22>":28,"<unused23>":29,"<unused24>":30,"<unused25>":31,"<unused26>":32,"<unused27>":33,"<unused28>":34,"<unused29>":35,"<unused30>":36,"<unused31>":37,"<unused32>":38,"<unused33>":39,"<unused34>":40,"<unused35>":41,"<unused36>":42,"<unused37>":43,"<unused38>":44,"<unused39>":45,"<unused40>":46,"<unused41>":47,"<unused42>":48,"<unused43>":49,"<unused44>":50,"<unused45>":51,"<unused46>":52,"<unused47>":53,"<unused48>":54,"<unused49>":55,"<unused50>":56,"<unused51>":57,"<unused52>":58,"<unused53>":59,"<unused54>":60,"<unused55>":61,"<unused56>":62,"<unused57>":63,"<unused58>":64,"<unused59>":65,"<unused60>":66,"<unused61>":67,"<unused62>":68,"<unused63>":69,"<unused64>":70,"<unused65>":71,"<unused66>":72,"<unused67>":73,"<unused68>":74,"<unused69>":75,"<unused70>":76,"<unused71>":77,"<unused72>":78,"<unused73>":79,"<unused74>":80,"<unused75>":81,"<unused76>":82,"<unused77>":83,"<unused78>":84,"<unused79>":85,"<unused80>":86,"<unused81>":87,"<unused82>":88,"<unused83>":89,"<unused84>":90,"<unused85>":91,"<unused86>":92,"<unused87>":93,"<unused88>":94,"<unused89>":95,"<unused90>":96,"<unused91>":97,"<unused92>":98,"<unused93>":99,"<unused94>":100,"<unused95>":101,"<unused96>":102,"<unused97>":103,"▁이":104,"▁있":105,"▁1":106,"으로":107,"▁대":108,"에서":109,"\"\"":110,"▁기":111,"▁2":112,"▁지":113,"▁수":114,"했다":115,"▁전":116,"▁사":117,"▁한":118,"▁가":119,"▁것":120,"▁시":121,"▁등":122,"▁있다":123,"▁정":124,"하는":125,"▁제":126,"▁그":127,"이다":128,"▁'":129,"▁경":130,"▁주":131,"▁보":132,"▁중":133,"▁아":134,"하고":135,"▁공":136,"▁\"\"":137,"▁인":138,"▁국":139,"00":140,"▁3":141,"▁위":142,"▁자":143,"▁부":144,"▁오":145,"▁상":146,"▁일":147,"▁다":148,"니다":149,"▁하":150,"▁서":151,"▁유":152,"▁관":153,"▁조":154,"▁나":155,"▁모":156,"▁개":157,"▁연":158,"▁최":159,"▁소":160,"▁고":161,"▁의":162,"▁비":163,"▁내":164,"▁선":165,"▁신":166,"▁‘":167,"▁발":168,"▁미":169,"▁여":170,"▁해":171,"▁구":172,"▁4":173,"▁5":174,"▁20":175,"▁통":176,"▁있는":177,"한다":178,"▁마":179,"▁강":180,"▁“":181,"이라":182,"▁동":183,"▁김":184,"▁현":185,"▁방":186,"뉴스":187,"▁세":188,"었다":189,"▁영":190,"▁만":191,"..":192,"▁기자":193,"▁예":194,"까지":195,"▁도":196,"▁말":197,"▁성":198,"▁안":199,"▁않":200,"▁[":201,"습니다":202,"▁실":203,"▁진":204,"▁우":205,"▁어":206,"▁교":207,"▁지난":208,"▁원":209,"▁스":210,"부터":211,"▁무":212,"▁장":213,"▁문":214,"▁때":215,"들이":216,"▁없":217,"...":218,"▁후":219,"지만":220,"▁6":221,"▁바":222,"▁추":223,"▁재":224,"▁대한":225,"면서":226,"▁따":227,"▁특":228,"▁분":229,"에는":230,"▁결":231,"▁생":232,"▁매":233,"▁것으로":234,"▁\"":235,"▁201":236,"▁계":237,"▁불":238,"▁19":239,"▁출":240,"▁거":241,"▁밝":242,"된다":243,"에게":244,"▁당":245,"▁반":246,"▁받":247,"▁확":248,"적인":249,"▁서울":250,"▁회":251,"▁또":252,"▁(":253,"▁차":254,"▁노":255,"▁7":256,"▁올":257,"▁박":258,"적으로":259,"▁10":260,"▁설":261,"▁열":262,"▁한국":263,"▁위해":264,"▁8":265,"▁남":266,"co":267,"▁참":268,"였다":269,"▁금":270,"▁=":271,"▁입":272,"▁밝혔":273,"하기":274,"▁포":275,"▁및":276,"▁단":277,"▁증":278,"▁적":279,"▁더":280,"됐다":281,"▁건":282,"▁되":283,"▁프":284,"▁감":285,"▁9":286,"▁밝혔다":287,"▁알":288,"▁총":289,"▁새":290,"▁파":291,"이라고":292,"▁많":293,"▁통해":294,"하게":295,"들의":296,"▁운":297,"▁투":298,"다는":299,"▁배":300,"▁역":301,"▁달":302,"으며":303,"▁행":304,"들은":305,"▁외":306,"▁함":307,"▁200":308,"▁같":309,"▁평":310,"▁직":311,"▁과":312,"▁청":313,"▁학":314,"▁작":315,"▁요":316,"▁말했다":317,"▁판":318,"▁저":319,"억원":320,"▁높":321,"▁피":322,"▁물":323,"▁임":324,"▁활":325,"▁초":326,"장은":327,"▁대표":328,"▁명":329,"▁한다":330,"▁대해":331,"in":332,"▁미국":333,"위원":334,"▁두":335,"▁들":336,"▁화":337,"▁앞":338,"▁민":339,"▁양":340,"000":341,"통령":342,"▁지역":343,"▁때문":344,"▁본":345,"▁S":346,"자는":347,"▁게":348,"▁산":349,"하다":350,"▁할":351,"▁함께":352,"았다":353,"▁각":354,"),":355,"▁집":356,"▁점":357,"만원":358,"에서는":359,"▁했다":360,"▁정부":361,"▁종":362,"▁북":363,"▁업":364,"20":365,"▁이번":366,"서울":367,"▁관련":368,"▁검":369,"▁삼":370,"on":371,"▁경우":372,"▁대통령":373,"▁체":374,"보다":375,"▁11":376,"▁중국":377,"에도":378,"▁이어":379,"▁가능":380,"장을":381,"▁사업":382,"er":383,"사를":384,"▁12":385,"시스":386,"▁위한":387,"▁변":388,"▁이상":389,"▁지원":390,"▁필":391,"▁목":392,"비스":393,"▁사용":394,"되는":395,"▁등을":396,"▁진행":397,"▁광":398,"▁관계":399,"▁간":400,"▁따라":401,"리는":402,"▁이후":403,"▁규":404,"▁협":405,"▁환":406,"▁처":407,"▁C":408,"▁못":409,"▁독":410,"▁법":411,"▁맞":412,"하여":413,"▁호":414,"▁심":415,"▁취":416,"은행":417,"▁리":418,"연합":419,"▁합":420,"▁것이":421,"회의":422,"▁세계":423,"도록":424,"하지":425,"기를":426,"▁국내":427,"▁의원":428,"시아":429,"기업":430,"▁일본":431,"▁같은":432,"▁사람":433,"▁데":434,"▁약":435,"▁코":436,"ew":437,"학교":438,"▁기업":439,"com":440,"졌다":441,"▁문제":442,"▁크":443,"▁아이":444,"라고":445,"장이":446,"▁지난해":447,"▁현재":448,"▁충":449,"▁A":450,"▁뒤":451,"en":452,"▁시작":453,"▁이날":454,"▁하는":455,"들을":456,"▁치":457,"▁채":458,"▁손":459,"▁창":460,"▁가장":461,"하며":462,"▁카":463,"▁국민":464,"대로":465,"이나":466,"▁예정":467,"▁살":468,"▁에":469,"▁투자":470,"▁속":471,"시간":472,"레이":473,"▁경기":474,"▁우리":475,"▁후보":476,"▁경제":477,"▁제공":478,"▁30":479,"스트":480,"▁프로":481,".1":482,"▁15":483,"입니다":484,"겠다":485,"라는":486,"ews":487,"▁뉴스":488,"▁타":489,"▁군":490,"▁아니":491,"▁계획":492,"▁올해":493,"▁들어":494,"an":495,"▁논":496,"▁이용":497,"kr":498,"마트":499,"하였다":500,"는데":501,"▁표":502,"뉴시스":503,"사업":504,"▁태":505,"▁줄":506,"▁순":507,"리를":508,"▁시장":509,"▁L":510,"경제":511,"▁그는":512,"▁오후":513,"하면":514,"▁돌":515,"지는":516,"▁복":517,"▁교육":518,"▁늘":519,"is":520,"르면":521,"되고":522,"리고":523,"▁음":524,"▁브":525,"리아":526,"▁K":527,"▁삼성":528,"▁최근":529,"시장":530,"▁드":531,"▁서비스":532,"▁때문에":533,"▁승":534,"해야":535,"▁개발":536,"▁다른":537,"성을":538,"▁18":539,"▁오전":540,"▁담":541,"▁필요":542,"▁메":543,"▁근":544,"▁것은":545,"▁농":546,"▁권":547,"▁좋":548,"▁것이다":549,"센터":550,"▁연구":551,"▁▶":552,"▁그러":553,"▁기록":554,"자가":555,"▁디":556,"(1":557,"지를":558,"▁운영":559,"▁편":560,"▁설명":561,"▁대상":562,"▁큰":563,"▁다양":564,"▁된다":565,"▁I":566,"▁모두":567,"▁특히":568,"이고":569,"력을":570,"▁형":571,"or":572,"▁로":573,"▁▲":574,"▁발표":575,"▁따르면":576,"▁찾":577,"▁접":578,"▁전문":579,"▁온":580,"ar":581,"▁만들":582,"▁완":583,"▁하고":584,"랜드":585,"서는":586,"▁증가":587,"▁토":588,"사는":589,".2":590,"▁홍":591,"▁국가":592,"성이":593,"했습니다":594,"▁금융":595,"▁판매":596,"▁결과":597,"하면서":598,"연합뉴스":599,"운데":600,"되었다":601,"▁최고":602,"기에":603,"▁항":604,"▁있어":605,"이라는":606,"▁넘":607,"▁폭":608,"▁번":609,"▁준":610,"▁라":611,"▁열린":612,"위원회":613,"▁M":614,"▁나타":615,"▁다음":616,"▁부산":617,"▁언":618,"▁경찰":619,"사가":620,"ti":621,"le":622,"▁자신":623,"▁16":624,"▁상황":625,"지고":626,"▁애":627,"▁가운데":628,"들에게":629,"▁없다":630,"▁c":631,"▁갖":632,"▁참여":633,"했다고":634,"▁야":635,"▁등의":636,"▁눈":637,"▁것을":638,"▁13":639,"▁0":640,"▁많은":641,"▁다양한":642,"▁절":643,"▁사회":644,"▁추진":645,"▁:":646,"▁글":647,"▁발생":648,"▁제품":649,"▁식":650,"▁누":651,"▁걸":652,"화를":653,"▁14":654,"도로":655,"이트":656,"▁북한":657,"▁하나":658,"news":659,"▁현대":660,"▁첫":661,"상을":662,"▁T":663,"▁효":664,"0%":665,"▁전망":666,"▁향":667,"▁네":668,".5":669,"▁100":670,"페이":671,"▁생각":672,"▁급":673,"정을":674,"▁17":675,"ent":676,"▁기술":677,"자의":678,"▁베":679,"주의":680,"▁하지만":681,"교육":682,"▁최대":683,"▁철":684,"▁기준":685,"▁있습니다":686,"머니":687,"▁측":688,"▁☞":689,"▁게임":690,"으나":691,"▁축":692,"▁전국":693,"▁트":694,"▁알려":695,"▁친":696,"▁책":697,"로운":698,"▁잘":699,"▁용":700,"▁관계자는":701,"se":702,"al":703,"▁날":704,"▁백":705,"▁정치":706,"▁규모":707,"명이":708,"▁허":709,"▁상승":710,"리가":711,"▁공개":712,"▁커":713,"부는":714,"대표":715,"▁또한":716,"는다":717,"▁국제":718,"▁조사":719,"▁패":720,"거나":721,"병원":722,"기가":723,"기도":724,"▁사실":725,"▁벌":726,"▁확대":727,"▁등이":728,"▁이에":729,"▁【":730,"▁스마트":731,"이는":732,"보를":733,"▁포함":734,"201":735,"▁천":736,"▁될":737,"▁Y":738,"▁버":739,"▁25":740,"지역":741,"▁N":742,"▁-":743,"▁곳":744,"이며":745,"났다":746,"▁출시":747,".3":748,"되어":749,"▁씨":750,"▁확인":751,"▁낮":752,"▁P":753,"▁평가":754,"▁국회":755,"▁마련":756,"▁당시":757,"▁기대":758,"▁예상":759,"▁그러나":760,"바일":761,"▁내용":762,"도를":763,"▁활동":764,"사진":765,"▁오는":766,"일까지":767,"▁다시":768,"▁고객":769,"▁질":770,"민국":771,"▁여러":772,"▁B":773,"%)":774,"산업":775,"들과":776,"TN":777,"▁한편":778,"▁없는":779,"▁예정이다":780,"▁가격":781,"▁시간":782,"▁결정":783,"▁인터":784,"▁대학":785,"▁주요":786,"▁황":787,"에서도":788,"문화":789,"un":790,"원은":791,"일부터":792,"▁보고":793,"▁문화":794,"연구":795,"▁24":796,"la":797,"사의":798,"▁추가":799,"증권":800,"기관":801,"th":802,"왔다":803,"()":804,"그램":805,"자를":806,"기는":807,"했고":808,"▁힘":809,"명을":810,"▁이를":811,"▁사이":812,"라인":813,"▁`":814,"▁구성":815,"▁여성":816,"▁교수":817,"▁D":818,"데이":819,"▁오늘":820,"▁이유":821,"▁면":822,"▁민주":823,"혐의":824,"이라며":825,"▁정책":826,"▁개최":827,"▁YTN":828,"기자":829,"위를":830,"▁모든":831,"가는":832,".0":833,"회를":834,"▁학생":835,"인다":836,"▁월":837,"▁강화":838,"▁아니라":839,"▁중심":840,"30":841,".[":842,"식을":843,"▁테":844,"▁수준":845,"▁분석":846,"▁일부":847,"▁피해":848,"10":849,"처럼":850,"년에":851,"▁대비":852,"▁해외":853,"나라":854,"동차":855,"▁송":856,"▁전체":857,"▁방문":858,"▁참석":859,"▁동안":860,"▁199":861,"정보":862,"▁있도록":863,"km":864,"업체":865,"▁매출":866,"정부":867,"기로":868,"▁사진":869,"리스":870,".4":871,"▁지금":872,"누리":873,"개월":874,"했던":875,"▁안전":876,"▁처음":877,"▁혐의":878,"▁직접":879,"▁강조":880,"▁실시":881,"▁많이":882,"▁F":883,"▁막":884,"▁소비":885,"▁이미":886,"▁플":887,"치를":888,"▁주장":889,"tion":890,"▁이런":891,"전자":892,"다고":893,"re":894,"▁핵":895,"▁f":896,"▁끝":897,"관리":898,"▁클":899,"▁빠":900,"▁영향":901,"',":902,"▁성장":903,"▁쓰":904,"투자":905,"안을":906,"▁생산":907,"인이":908,"▁대한민국":909,"▁요구":910,"로벌":911,"▁경쟁":912,"▁개선":913,"▁있으며":914,"제로":915,"▁지적":916,".6":917,"▁선정":918,"▁모습":919,"▁21":920,"지원":921,"▁G":922,"▁성공":923,"▁사건":924,"▁산업":925,"그룹":926,"ht":927,"▁높은":928,"▁영업":929,"▁윤":930,"▁있다는":931,"50":932,"▁공동":933,"금융":934,"▁볼":935,"▁22":936,"기술":937,"▁잡":938,"분기":939,"▁기존":940,".7":941,"▁새로운":942,"▁지방":943,"한국":944,"▁휴":945,"▁길":946,"금을":947,"▁있을":948,"▁중요":949,"▁△":950,"세를":951,"▁모바일":952,"▁있었다":953,".8":954,"민주":955,"자인":956,"▁떨":957,"▁일반":958,"원이":959,"▁지속":960,"▁별":961,"te":962,"일보":963,"▁<":964,".9":965,"▁시민":966,"▁하락":967,"도가":968,"▁설명했다":969,"▁주민":970,"명의":971,"▁관심":972,"▁범":973,"ig":974,"▁선거":975,"▁23":976,"▁프로그램":977,"신문":978,"누리당":979,"권자":980,"▁각각":981,"\"\"\"":982,"렸다":983,"▁비롯":984,"▁즐":985,"원을":986,"케이":987,"▁활용":988,"▁수도":989,"달러":990,"▁받아":991,"▁/":992,"▁E":993,"▁육":994,"1)":995,"▁탄":996,"▁거래":997,"▁갈":998,"BS":999,"▁방송":1000,"한다고":1001,"▁정보":1002,"▁검찰":1003,"파트":1004,"(2":1005,"개발":1006,"▁레":1007,"▁《":1008,"장에서":1009,"▁특별":1010,"▁위치":1011,"▁사고":1012,"▁설치":1013,"이었다":1014,"▁적용":1015,"기사":1016,"▁폐":1017,"▁바로":1018,"▁않고":1019,"▁27":1020,"▁도시":1021,"▁외국":1022,"장의":1023,"▁떨어":1024,"▁상품":1025,"▁26":1026,"어나":1027,"▁28":1028,"롯데":1029,"▁울":1030,"▁존":1031,"▁계속":1032,"▁얼":1033,"씨는":1034,"▁침":1035,"▁장관":1036,"▁개인":1037,"▁기간":1038,"▁분야":1039,"▁홈":1040,"▁어려":1041,"으면":1042,"▁계획이다":1043,"▁받고":1044,"▁희":1045,"▁참가":1046,"시에":1047,"라이":1048,"▁상태":1049,"ment":1050,"▁왕":1051,"▁극":1052,"스는":1053,"▁콘":1054,"사에":1055,"▁이름":1056,"▁정도":1057,"시설":1058,"▁탈":1059,"▁효과":1060,"▁해당":1061,"▁이는":1062,"▁있다고":1063,"대를":1064,"▁글로벌":1065,"▁골":1066,"▁관리":1067,"▁50":1068,"▁영화":1069,"▁악":1070,"▁키":1071,"▁있었":1072,"▁그리고":1073,"▁긴":1074,"▁유지":1075,"근혜":1076,"부분":1077,"▁환경":1078,"▁또는":1079,"▁않은":1080,"▁등에":1081,"주는":1082,"▁대상으로":1083,"▁학교":1084,"사회":1085,"인트":1086,"▁새누리당":1087,"시키":1088,"▁블":1089,"하였":1090,"▁응":1091,"드는":1092,"▁느":1093,"▁준비":1094,"력이":1095,"▁인천":1096,"시는":1097,"자로":1098,"원의":1099,"▁잠":1100,"▁우려":1101,"▁스마트폰":1102,"▁유럽":1103,"do":1104,"년부터":1105,"단체":1106,"의를":1107,"▁있고":1108,"▁만나":1109,"▁건설":1110,"▁과정":1111,"▁29":1112,"제를":1113,"▁업체":1114,"작권자":1115,"▁맡":1116,"▁조선":1117,"▁구조":1118,"▁밀":1119,"▁발전":1120,"리에":1121,"▁먹":1122,"▁브랜드":1123,"▁미래":1124,"▁수출":1125,"▁만들어":1126,"▁뉴":1127,"▁캐":1128,"▁뜻":1129,"▁난":1130,"이어":1131,"▁보도":1132,"수를":1133,"▁놓":1134,"▁몰":1135,"▁중소":1136,"▁제주":1137,"수는":1138,"점을":1139,"▁업무":1140,"하겠다":1141,"▁}":1142,"▁됐다":1143,"가지":1144,"▁공급":1145,"인은":1146,"▁된":1147,"▁LG":1148,"하기로":1149,"해서":1150,"▁수익":1151,"▁중앙":1152,"▁기능":1153,"진다":1154,"▁{":1155,"▁대구":1156,"▁보인다":1157,"년간":1158,"▁최초":1159,"했지만":1160,"투데이":1161,"▁건강":1162,"▁크게":1163,"수가":1164,"▁발견":1165,"인의":1166,"▁관광":1167,"료를":1168,"스타":1169,"▁병":1170,"▁부분":1171,"동을":1172,"▁생활":1173,"거래":1174,"▁찾아":1175,"24":1176,"▁공식":1177,"▁감소":1178,"▁의미":1179,"▁경영":1180,"▁시스":1181,"▁등으로":1182,"본부":1183,"▁자유":1184,"장에":1185,"el":1186,"▁적극":1187,"▁선보":1188,"권을":1189,"▁행사":1190,"to":1191,"▁얻":1192,"▁가족":1193,"ch":1194,"▁따른":1195,"동안":1196,"▁귀":1197,"▁도입":1198,"▁광주":1199,"이익":1200,"▁목표":1201,"▁차량":1202,"▁압":1203,"▁핫":1204,"등학교":1205,"▁40":1206,"et":1207,"▁위원":1208,"국의":1209,"▁역시":1210,"▁고려":1211,"▁신청":1212,"자들이":1213,"환경":1214,"▁평균":1215,"▁인사":1216,"랑스":1217,"▁어린":1218,"▁떠":1219,"▁시행":1220,"▁자신의":1221,"▁때문이다":1222,"▁되었다":1223,"▁대부분":1224,"▁더욱":1225,"했으며":1226,"벤트":1227,"▁198":1228,"방송":1229,"장과":1230,"TV":1231,"지가":1232,"▁롯데":1233,"▁ᆞ":1234,"▁이뤄":1235,"인을":1236,"▁시스템":1237,"▁책임":1238,"▁러":1239,"조사":1240,"▁기념":1241,"▁앞서":1242,"도의":1243,"대의":1244,"▁모델":1245,"선을":1246,"▁2012":1247,"▁없이":1248,"▁정상":1249,"▁스타":1250,"▁만큼":1251,"아시아":1252,"▁엔":1253,"19":1254,"▁SK":1255,"▁그런":1256,"it":1257,"▁아파트":1258,"로부터":1259,"되지":1260,"▁역할":1261,"▁방법":1262,"▁코스":1263,"▁돈":1264,"▁석":1265,"되었":1266,"▁실적":1267,"▁터":1268,"▁물론":1269,"▁기관":1270,"▁조성":1271,"세계":1272,"렇게":1273,"%,":1274,"▁내년":1275,"▁독일":1276,"통신":1277,"▁전문가":1278,"▁풍":1279,"▁지난달":1280,"약을":1281,"▁제작":1282,"원에":1283,"▁논란":1284,"정책":1285,"도시":1286,"▁R":1287,"▁확보":1288,"▁전략":1289,"대에":1290,"──":1291,"▁작품":1292,"▁않았다":1293,"지에":1294,"▁받은":1295,"치는":1296,"▁사망":1297,"머니투데이":1298,"▁~":1299,"사와":1300,"르는":1301,"서를":1302,"포츠":1303,"▁집중":1304,"합니다":1305,"부를":1306,"▁2013":1307,"▁몸":1308,"▁이벤트":1309,"대학":1310,"냈다":1311,"세요":1312,"도는":1313,"▁그의":1314,"▁2014":1315,"▁영상":1316,"▁예산":1317,"▁봉":1318,"▁돌아":1319,"▁좋은":1320,"▁풀":1321,"▁은행":1322,"▁보여":1323,"▁&":1324,"▁나오":1325,"▁전했다":1326,"너지":1327,"de":1328,"▁2011":1329,"▁강조했다":1330,"▁않는":1331,"과학":1332,"▁은":1333,"▁자동차":1334,"▁s":1335,"▁2015":1336,"ul":1337,"▁싶":1338,"▁차지":1339,").":1340,"▁의견":1341,"▁인터넷":1342,"▁머":1343,"▁2010":1344,"▁이야":1345,"로는":1346,"일리":1347,"전을":1348,"▁H":1349,".\"\"":1350,"▁팔":1351,"스를":1352,"BC":1353,"대회":1354,"▁대선":1355,"▁엄":1356,"▁무료":1357,"하려":1358,"과의":1359,"▁TV":1360,"▁판단":1361,"na":1362,"▁설립":1363,"▁선수":1364,"혁신":1365,"건설":1366,"▁와":1367,"▁이동":1368,"ss":1369,"ction":1370,"▁촉":1371,"▁협력":1372,"겠다는":1373,"▁인정":1374,"▁죽":1375,"▁즉":1376,"▁아닌":1377,"밖에":1378,"▁노동":1379,"▁혼":1380,"ight":1381,"이었":1382,"60":1383,"▁31":1384,"▁논의":1385,"부가":1386,"ic":1387,"ing":1388,"라도":1389,"▁만에":1390,"경찰":1391,"디어":1392,"▁해결":1393,"▁숨":1394,"▁이전":1395,"▁온라인":1396,"▁회사":1397,"어난":1398,"▁공연":1399,"반기":1400,"(3":1401,"▁어떤":1402,"▁제시":1403,"▁의원은":1404,"한다는":1405,"▁박근혜":1406,"▁앞으로":1407,"▁통합":1408,"▁컨":1409,"스크":1410,"▁상당":1411,"▁국정":1412,"▁펼":1413,"지방":1414,"▁방식":1415,"프트":1416,"▁대응":1417,"정치":1418,"▁답":1419,"▁부담":1420,"▁강원":1421,"▁대표는":1422,"물을":1423,"▁뿐":1424,"협회":1425,"▁대형":1426,"▁영국":1427,"▁쉽":1428,"ww":1429,"▁j":1430,"▁드러":1431,"스터":1432,"일에":1433,"▁착":1434,"▁프랑스":1435,"▁2017":1436,"의회":1437,"▁마음":1438,"st":1439,"▁주식":1440,"www":1441,"▁주택":1442,"▁행정":1443,"▁선택":1444,"장으로":1445,"▁받았다":1446,"▁하루":1447,"대가":1448,"op":1449,"(4":1450,"계를":1451,"▁팀":1452,"▁조직":1453,"▁되는":1454,"▁격":1455,"newsis":1456,"▁지급":1457,"업을":1458,"스의":1459,"개의":1460,"공사":1461,"▁본격":1462,"▁청와":1463,"indo":1464,"▁가입":1465,"▁결국":1466,"(0":1467,"▁구축":1468,"▁달러":1469,"▁캠":1470,"아이":1471,"이낸":1472,"▁전달":1473,"▁품":1474,"▁직원":1475,"▁나타났다":1476,"▁2016":1477,"▁페":1478,"▁제기":1479,"학생":1480,"이터":1481,"▁p":1482,"▁민주당":1483,"▁v":1484,"보험":1485,"▁끌":1486,"가구":1487,"▁퇴":1488,"무원":1489,"il":1490,"▁둘":1491,"▁원내":1492,"서비스":1493,"12":1494,"펀드":1495,"종합":1496,"오늘":1497,"▁경기도":1498,"▁배우":1499,"▁헤":1500,"▁출신":1501,"주택":1502,"▁있지만":1503,"회사":1504,"▁뛰":1505,"카드":1506,"▁자리":1507,"▁진출":1508,"▁사무":1509,"원에서":1510,"▁어린이":1511,"▁전년":1512,"▁먼":1513,"대한":1514,"규모":1515,"▁수상":1516,",000":1517,"▁전시":1518,"▁대전":1519,"▁자체":1520,"동산":1521,"▁반면":1522,"▁암":1523,"관련":1524,"▁방침":1525,"움을":1526,"▁지지":1527,"▁)":1528,"▁지정":1529,"자리":1530,"▁체결":1531,"중앙":1532,"70":1533,"▁우수":1534,"기의":1535,"복지":1536,"▁비판":1537,"페이스":1538,"상이":1539,"국민":1540,"(5":1541,"선거":1542,"▁서울시":1543,"▁주변":1544,"▁U":1545,"가가":1546,"이자":1547,"am":1548,"▁음악":1549,"▁가능성이":1550,");":1551,"대학교":1552,"▁분양":1553,"생활":1554,"가를":1555,"▁헌":1556,"감을":1557,"▁갖고":1558,"oo":1559,"▁인기":1560,"▁아시아":1561,"포인트":1562,"▁수요":1563,"40":1564,"▁지하":1565,")'":1566,"▁안정":1567,"▁러시아":1568,"쇼핑":1569,"▁비해":1570,"들도":1571,"▁덧":1572,"▁녹":1573,"▁않았":1574,"▁공공":1575,"위는":1576,"▁알려졌다":1577,"분의":1578,"▁연결":1579,"][":1580,"지로":1581,"▁자연":1582,"▁신규":1583,"▁의혹":1584,"안전":1585,"▁증권":1586,"▁소속":1587,"▁의료":1588,"기간":1589,"▁th":1590,"▁사랑":1591,"▁공격":1592,"▁중소기업":1593,"▁아직":1594,"▁넘어":1595,"데일리":1596,"워크":1597,"다가":1598,"▁언론":1599,"▁이루":1600,"▁구매":1601,"▁기다":1602,"자들의":1603,"니까":1604,"▁핵심":1605,"성과":1606,"문을":1607,"와의":1608,"스가":1609,"%),":1610,"▁돼":1611,"11":1612,"▁교통":1613,"전히":1614,"▁의해":1615,"...\"\"":1616,"▁전자":1617,"▁인수":1618,"▁중심으로":1619,"▁검토":1620,"스코":1621,"▁2008":1622,"부에":1623,"▁겨":1624,"▁징":1625,"겠습니다":1626,"▁외교":1627,"월부터":1628,"▁어떻":1629,"▁홈페이":1630,"원으로":1631,"스로":1632,"▁반대":1633,"있는":1634,"▁수사":1635,"▁합의":1636,"▁보험":1637,"▁병원":1638,"성화":1639,"▁보유":1640,"라며":1641,"년까지":1642,"되면서":1643,"게임":1644,"▁변화":1645,"▁2009":1646,"▁덧붙":1647,"마다":1648,"▁노력":1649,"▁인해":1650,"억원을":1651,"▁영향을":1652,"이드":1653,"▁왜":1654,"텐츠":1655,"▁회장":1656,"부의":1657,"▁번째":1658,"훈련":1659,"▁높아":1660,"▁치료":1661,"▁기획":1662,"소년":1663,"▁O":1664,"▁기본":1665,"ma":1666,"▁기반":1667,"이낸셜":1668,"▁루":1669,"▁비교":1670,"▁개정":1671,"▁체험":1672,"소를":1673,"▁반영":1674,"▁\"[":1675,"▁중인":1676,"▁인근":1677,"▁디자인":1678,"▁이와":1679,"위에":1680,"▁너":1681,"500":1682,"▁주목":1683,"사로":1684,"▁우선":1685,"▁애플":1686,"▁대통령은":1687,"▁제외":1688,"▁대출":1689,"▁◇":1690,"제가":1691,"▁미국의":1692,"보고":1693,"▁이러":1694,"운동":1695,"▁정부가":1696,"▁각종":1697,"▁오른":1698,"▁나온":1699,"▁소개":1700,"씨가":1701,"▁낙":1702,"거리":1703,"대는":1704,"▁지도":1705,"▁거쳐":1706,"▁붙":1707,"으로는":1708,"두고":1709,"▁IT":1710,"▁쿠":1711,"▁어떻게":1712,"▁성과":1713,"이지":1714,"정은":1715,"품을":1716,"▁매우":1717,"--":1718,",\"":1719,"▁위험":1720,"세가":1721,"▁i":1722,"▁최종":1723,"▁내려":1724,"부산":1725,"▁견":1726,"쳤다":1727,"▁대신":1728,"▁수입":1729,"▁오픈":1730,"▁회의":1731,"▁꾸":1732,"인데":1733,"▁제조":1734,"▁전통":1735,"right":1736,"비를":1737,"▁경남":1738,"▁것도":1739,"▁필요한":1740,"15":1741,"▁보호":1742,"▁울산":1743,"▁종합":1744,"▁역사":1745,"▁않을":1746,"▁만든":1747,"▁계약":1748,"▁현지":1749,"나는":1750,"▁전쟁":1751,"관계":1752,"▁금지":1753,"ho":1754,"▁for":1755,"▁인도":1756,"▁같다":1757,"▁올라":1758,"▁경험":1759,"사고":1760,"하도록":1761,"▁시설":1762,"니아":1763,"▁◆":1764,"주시":1765,"▁60":1766,"▁보면":1767,"하던":1768,"▁유명":1769,"80":1770,"▁신고":1771,"▁고용":1772,"▁있게":1773,"▁민간":1774,"▁전해":1775,"▁할인":1776,"월호":1777,"▁있는데":1778,"이버":1779,"▁불법":1780,"하자":1781,"▁독자":1782,"▁관련해":1783,"현지":1784,"하거나":1785,"▁그래":1786,"회에서":1787,"▁요청":1788,"▁나서":1789,"지막":1790,"▁여행":1791,"▁$":1792,"▁KT":1793,"리의":1794,"▁희망":1795,"이낸셜뉴스":1796,"▁구속":1797,"▁형태":1798,"▁잇":1799,"상의":1800,"대전":1801,"리카":1802,"▁않는다":1803,"▁대통령이":1804,"▁중단":1805,"량을":1806,"▁이해":1807,"▁역할을":1808,"했다는":1809,"▁이러한":1810,"▁정부는":1811,"▁섬":1812,"자들은":1813,"▁없어":1814,"▁항공":1815,"▁했":1816,"계획":1817,"조선":1818,"▁감독":1819,"▁전환":1820,"▁업계":1821,"▁같이":1822,"▁프리":1823,"▁존재":1824,"림픽":1825,"학과":1826,"▁졸":1827,"▁부문":1828,"상에":1829,"만에":1830,"전문":1831,"▁납":1832,"▁공간":1833,"ta":1834,"▁부동산":1835,"불어":1836,"▁밤":1837,"없이":1838,"▁추천":1839,"세대":1840,"▁회복":1841,"25":1842,"▁특징":1843,"▁능":1844,"ur":1845,"▁서비스를":1846,"치고":1847,"청은":1848,"▁등장":1849,"르고":1850,"번째":1851,"18":1852,"지도":1853,"디오":1854,"자와":1855,"▁강남":1856,".”":1857,"▁바이":1858,"▁현장":1859,"관광":1860,"▁J":1861,"▁홍보":1862,"▁관한":1863,"러스":1864,"▁이사":1865,"▁국회의":1866,"▁않아":1867,"▁연속":1868,"장관":1869,"▁받을":1870,"영상":1871,"ed":1872,"정한":1873,"▁덧붙였다":1874,"율이":1875,"이가":1876,"▁제출":1877,"▁그룹":1878,"▁비용":1879,"▁퍼":1880,"▁문제가":1881,"fn":1882,"▁실제":1883,"케팅":1884,"▁국방":1885,"▁아니다":1886,"평가":1887,"▁인구":1888,"▁향후":1889,"▁것이라고":1890,"▁삶":1891,"▁혜":1892,"되면":1893,"하기도":1894,"업계":1895,"▁정부의":1896,"▁가까":1897,"차를":1898,"▁부족":1899,")’":1900,"회가":1901,"▁가지":1902,"▁반응":1903,"▁마지막":1904,"▁먼저":1905,"▁시각":1906,"▁전기":1907,"명으로":1908,"▁하지":1909,"▁과정에서":1910,"▁몇":1911,"페이스북":1912,"량이":1913,"이번":1914,"▁등록":1915,"▁재정":1916,"▁사전":1917,"이를":1918,"▁통한":1919,"▁대책":1920,"▁광고":1921,"▁W":1922,"레스":1923,"항공":1924,"▁히":1925,"▁197":1926,"재단":1927,"▁앱":1928,"▁표현":1929,"로서":1930,"대책":1931,"▁원내대표":1932,"200":1933,"▁담당":1934,"재인":1935,"▁처리":1936,"▁가능하다":1937,"▁티":1938,"▁한다는":1939,"앵커":1940,"▁제한":1941,"▁지나":1942,"▁탑":1943,"음을":1944,"▁이같":1945,"▁혐의로":1946,"▁기록했다":1947,"▁보다":1948,"되며":1949,"▁이렇게":1950,"시스템":1951,"▁2000":1952,"▁과거":1953,"사에서":1954,"▁재판":1955,"▁슈":1956,"들에":1957,"▁나라":1958,"▁유통":1959,"립니다":1960,"▁중요한":1961,"▁있던":1962,"▁국민의":1963,"▁흐":1964,"▁위치한":1965,"아시아경제":1966,"▁o":1967,"정이":1968,"르게":1969,"▁동시에":1970,"▁저작권자":1971,"▁맞아":1972,"▁보는":1973,"▁더불어":1974,"]▶":1975,"▁통신":1976,"▁시즌":1977,"mu":1978,"제는":1979,"▁청와대":1980,"▁발언":1981,"▁외국인":1982,"촬영":1983,"▁장애":1984,"발전":1985,"▁움":1986,"▁방향":1987,"이기":1988,"국제":1989,"▁대해서는":1990,"월에":1991,"▁두고":1992,"▁빌":1993,"▁상대":1994,"▁결혼":1995,"▁비롯해":1996,"▁우리나라":1997,"수의":1998,"▁1,":1999,"yna":2000,"젝트":2001,"프로":2002,"회는":2003,"▁앞두고":2004,"하이":2005,"▁투표":2006,"성에":2007,"리지":2008,"▁확정":2009,"▁운동":2010,"▁겪":2011,"▁맛":2012,"공단":2013,"갔다":2014,"실을":2015,"▁다만":2016,"율은":2017,"원과":2018,"리와":2019,"▁이들은":2020,"▁보내":2021,"이션":2022,"NS":2023,"mm":2024,"▁중이다":2025,"▁전날":2026,"▁어렵":2027,"▁긴급":2028,"▁종목":2029,"▁혁신":2030,"▁이상의":2031,"▁통과":2032,"▁뉴욕":2033,"명은":2034,"▁영업이익":2035,"▁́":2036,"으로써":2037,"년에는":2038,"▁인상":2039,"▁파이낸셜뉴스":2040,"▁사례":2041,"린다":2042,"하지만":2043,"성은":2044,"의도":2045,"위가":2046,"▁달리":2047,"▁단체":2048,"▁빈":2049,"▁전남":2050,"lement":2051,"일을":2052,"섰다":2053,"▁+":2054,"▁과학":2055,"▁창업":2056,"▁좌":2057,"었고":2058,"임을":2059,"▁어느":2060,"▁변경":2061,"중한":2062,"▁300":2063,"▁건물":2064,"▁자료":2065,"바이":2066,"▁측은":2067,"▁전용":2068,"▁V":2069,"▁신용":2070,"▁싸":2071,"▁제대로":2072,"▁예방":2073,"▁2007":2074,"▁출연":2075,"▁최소":2076,"하다는":2077,"mula":2078,"▁되어":2079,"▁지적했다":2080,"▁그동안":2081,"텔레":2082,"5%":2083,"▁보였다":2084,"랐다":2085,"▁접근":2086,"행을":2087,"▁뉴시스":2088,"제품":2089,"▁공감":2090,"▁기초":2091,"▁재배":2092,"▁불가":2093,"▁국립":2094,"에게는":2095,"▁확산":2096,"▁마이":2097,"▁이들":2098,"13":2099,"주가":2100,"▁도로":2101,"▁듯":2102,"▁움직":2103,"구를":2104,"▁주장했다":2105,"롭게":2106,"▁불구":2107,"액은":2108,"▁500":2109,"▁가지고":2110,"▁컴":2111,"▁입장":2112,"▁홈페이지":2113,"만원을":2114,"▁jindo":2115,".5%":2116,"▁가진":2117,"플레이":2118,"▁규모의":2119,"마을":2120,"▁되고":2121,"회견":2122,"16":2123,"군의":2124,"화점":2125,"화가":2126,"▁장기":2127,"▁소재":2128,"▁방안":2129,"▁푸":2130,"▁숙":2131,"lo":2132,"▁대통령의":2133,"활동":2134,"시켜":2135,"▁위반":2136,"지털":2137,"치가":2138,"▁감사":2139,"닷컴":2140,"지지":2141,"경영":2142,"▁삼성전자":2143,"▁카드":2144,"▁옮":2145,"인으로":2146,"▁당선":2147,"▁소비자":2148,"▁콘텐츠":2149,"니스":2150,"▁조정":2151,"▁비중":2152,"▁솔":2153,"14":2154,"▁워":2155,"]☞":2156,"▁이달":2157,"▁촉구":2158,"자산":2159,"▁줄어":2160,"▁formula":2161,"삼성":2162,"▁무단":2163,"▁문제를":2164,"웨어":2165,"인터":2166,"▁있기":2167,"▁이탈":2168,"서도":2169,"▁주로":2170,"▁이하":2171,"▁사태":2172,"성장":2173,"▁색":2174,"▁분위":2175,"▁회원":2176,"Element":2177,"주년":2178,"▁바람":2179,"▁흔":2180,"식이":2181,"현지시간":2182,"소득":2183,"▁인터뷰":2184,"▁얘":2185,"움이":2186,"별로":2187,"▁누구":2188,"언론":2189,"로드":2190,"므로":2191,"▁연합":2192,"▁비롯한":2193,"다운":2194,"▁제안":2195,"저작권자":2196,"▁강력":2197,"우리":2198,"상품":2199,"▁받는":2200,"코리아":2201,"회장":2202,"▁대변":2203,"공항":2204,"▁졸업":2205,"▁처음으로":2206,"▁자금":2207,"▁청년":2208,"식품":2209,"지의":2210,"▁놀":2211,"es":2212,"▁에너지":2213,"관련기사":2214,"▁잔":2215,"리즈":2216,"▁전투":2217,"하는데":2218,"▁공모":2219,"▁모습을":2220,"페인":2221,"unction":2222,"▁내놓":2223,"▁마을":2224,"▁경북":2225,"▁않다":2226,"서관":2227,"he":2228,"▁기자회견":2229,"민주당":2230,"▁깊":2231,"(6":2232,"년대":2233,"경기":2234,"▁국무":2235,"▁너무":2236,"(\"\"":2237,"▁내부":2238,"17":2239,"▁기사":2240,"라마":2241,"노동":2242,"▁196":2243,"▁필요하다":2244,"▁열고":2245,"▁가능한":2246,"조정":2247,"느냐":2248,"▁사업을":2249,"도에":2250,"회에":2251,"▁꼽":2252,"▁프로젝트":2253,"이지만":2254,"▁알고":2255,"▁라이":2256,"국은":2257,"▁활성화":2258,"하우":2259,"▁여름":2260,"구조":2261,"▁70":2262,"▁좀":2263,"▁채용":2264,"됩니다":2265,"’,":2266,"▁딸":2267,"간의":2268,"실에서":2269,"▁작업":2270,"이데일리":2271,"▁b":2272,"▁비슷":2273,"▁호텔":2274,"▁세종":2275,"▁혜택":2276,"▁경찰은":2277,"▁해야":2278,"단을":2279,"▁레이":2280,"▁국토":2281,"지구":2282,"▁추정":2283,"▁제보":2284,"스토":2285,"시가":2286,"▁나가":2287,"▁얼마":2288,"케이션":2289,"▁취업":2290,"▁꿈":2291,"갤럭":2292,"▁전망이다":2293,"ro":2294,"군은":2295,"▁찬":2296,"건을":2297,"보는":2298,"철수":2299,"▁싱":2300,"▁선물":2301,"ad":2302,"▁이끌":2303,"▁데이터":2304,"▁망":2305,"▁독립":2306,"비아":2307,"지면서":2308,"무리":2309,"▁사상":2310,"가족":2311,"▁수행":2312,"갤럭시":2313,"▁var":2314,"▁1000":2315,"▁대한민국의":2316,"▁하이":2317,"▁벗":2318,"▁모집":2319,"▁아래":2320,"▁파악":2321,"▁마케팅":2322,"▁점을":2323,"▁관심을":2324,"▁불과":2325,"자동차":2326,"분을":2327,"▁축구":2328,"▁대체":2329,"▁정확":2330,"연금":2331,"기와":2332,"▁계열":2333,"▁둔":2334,"sp":2335,"▁염":2336,"부와":2337,"이사":2338,"협력":2339,"▁작은":2340,"▁구체":2341,"동아":2342,"이스":2343,"율을":2344,"▁세월호":2345,"으로부터":2346,"에선":2347,"▁거의":2348,"▁겸":2349,"▁투입":2350,"▁정도로":2351,"ap":2352,"대비":2353,"▁입장을":2354,"opy":2355,"▁수술":2356,"21":2357,"▁여의도":2358,"▁근무":2359,"▁무엇":2360,"위터":2361,"국이":2362,"관에서":2363,"점이":2364,"▁아버":2365,"▁유치":2366,"란다":2367,"기준":2368,"▁것이라는":2369,"에서의":2370,"▁서로":2371,"opyright":2372,"▁사람이":2373,"▁작년":2374,"90":2375,"▁주도":2376,"교통":2377,"▁근로":2378,"화된":2379,"억원으로":2380,"bo":2381,"▁마감":2382,"▁변호":2383,"격을":2384,"▁늘어":2385,"TA":2386,"▁없었다":2387,"▁전북":2388,"▁청소년":2389,"▁바탕":2390,"▁등은":2391,"트워크":2392,"▁공무원":2393,"지난":2394,"▁기준으로":2395,"▁최초로":2396,"포토":2397,"드로":2398,"▁복지":2399,"▁점검":2400,"▁공시":2401,"▁맥":2402,"▁보이고":2403,"▁남성":2404,"더라도":2405,"▁여러분의":2406,"▁덕":2407,"▁출발":2408,"됐습니다":2409,"▁깨":2410,"▁자세":2411,"▁자산":2412,"▁공정":2413,"▁청구":2414,"였던":2415,"▁매각":2416,"▁액":2417,"ong":2418,"▁이른":2419,"위로":2420,"▁남아":2421,"▁빨":2422,"당이":2423,"위원장":2424,"▁현대차":2425,"관은":2426,"▁달라":2427,"▁충분":2428,"▁원칙":2429,"▁친구":2430,"▁옥":2431,"▁갑":2432,"인지":2433,"▁언급":2434,"▁가정":2435,"▁못한":2436,"자에":2437,"▁여야":2438,"▁건축":2439,"▁그리스":2440,"22":2441,"▁194":2442,"▁시험":2443,"러운":2444,"▁슬":2445,"('":2446,"▁다음과":2447,"률이":2448,"▁활동을":2449,"제의":2450,"었던":2451,"▁열리는":2452,"▁브라":2453,"▁n":2454,"연구소":2455,"▁넓":2456,"▁내용을":2457,"▁나선":2458,"▁곡":2459,"스포츠":2460,"이란":2461,"▁남북":2462,"▁살아":2463,"관을":2464,"▁주는":2465,"▁삼성전":2466,"▁100%":2467,"후보":2468,"▁한다고":2469,"▁매년":2470,"▁그렇":2471,"예술":2472,"▁부정":2473,"▁회장은":2474,".(":2475,"▁문재인":2476,"▁스포츠":2477,"트를":2478,"▁토론":2479,"단지":2480,"();":2481,"▁사장":2482,"▁선언":2483,"▁여전히":2484,"가의":2485,"▁하면":2486,"당은":2487,"일이":2488,"통합":2489,"▁방안을":2490,"▁단계":2491,"트로":2492,"▁제보를":2493,"테크":2494,"ce":2495,"자금":2496,"왼쪽":2497,"하였고":2498,"▁공유":2499,"at":2500,"▁젊":2501,"2)":2502,"마켓":2503,"▁예비":2504,"법을":2505,"▁정보를":2506,"공업":2507,"주를":2508,"▁밝혀":2509,"란드":2510,"▁교수는":2511,"오는":2512,"▁칼":2513,"▁이것":2514,"▁어려운":2515,"▁차례":2516,"ate":2517,"보다는":2518,"▁영역":2519,"▁걸쳐":2520,"리기":2521,"안에":2522,"▁목소":2523,"im":2524,"차례":2525,"▁정신":2526,"lass":2527,"▁this":2528,"▁선고":2529,"▁,":2530,"▁예상된다":2531,"▁이야기":2532,"중국":2533,"▁배치":2534,"▁그대로":2535,"▁방침이다":2536,"▁빼":2537,"증을":2538,"단은":2539,"Co":2540,"▁코스피":2541,"▁뇌":2542,"직원":2543,"▁인한":2544,"▁예술":2545,"▁많다":2546,"id":2547,".1%":2548,"▁밝혔습니다":2549,"▁넣":2550,"▁콜":2551,"프라":2552,"▁이유로":2553,"▁쉽게":2554,"▁음식":2555,"▁발행":2556,"▁기다립니다":2557,".3%":2558,"월까지":2559,"▁\"\"\"":2560,"▁임명":2561,"오늘의":2562,"대출":2563,"▁대규모":2564,"전략":2565,"투자증권":2566,"▁최저":2567,"▁│":2568,"▁웃":2569,"속도로":2570,"▁김영":2571,"▁특허":2572,"하라":2573,"▁탐":2574,"▁조금":2575,"▁개혁":2576,"사일":2577,"▁소득":2578,"▁듣":2579,"▁일정":2580,"씨의":2581,"화에":2582,"▁이루어":2583,"▁기여":2584,"▁어디":2585,"▁보건":2586,"▁흑":2587,"▁비상":2588,"▁상장":2589,"▁좋아":2590,"▁w":2591,"문에":2592,"▁니":2593,"▁선발":2594,"▁웹":2595,"▁곧":2596,"가격":2597,".2%":2598,"요일":2599,"▁택":2600,"과정":2601,"▁이제":2602,"▁만화":2603,"▁현실":2604,"▁따라서":2605,"▁달성":2606,"▁낮은":2607,"대상":2608,"▁사회적":2609,"등급":2610,"▁설계":2611,"▁뮤":2612,"전에":2613,"▁월드":2614,"▁발표했다":2615,"▁2006":2616,"▁궁":2617,"점에서":2618,"▁눈에":2619,"인과":2620,"특별":2621,"▁얼굴":2622,"다면":2623,"시켰":2624,"▁제도":2625,"어를":2626,"▁연구원은":2627,"▁흥":2628,"23":2629,"당의":2630,"▁매매":2631,"리로":2632,"▁그녀":2633,"▁일이":2634,"▁엘":2635,"▁받았":2636,"▁소중한":2637,"▁소송":2638,"▁수도권":2639,"▁스스로":2640,"▁우승":2641,"ank":2642,"체육":2643,"▁화장":2644,"반도":2645,"▁일으":2646,"▁하였다":2647,"만의":2648,"▁겨울":2649,"▁총선":2650,"▁아울":2651,"▁열어":2652,"▁획":2653,"▁북한의":2654,"자치":2655,"▁아들":2656,".4%":2657,"▁채권":2658,"보호":2659,"▁의견을":2660,"▁대기업":2661,"▁촬영":2662,"▁충남":2663,"▁쪽":2664,"▁그것":2665,"호텔":2666,"과는":2667,"했을":2668,"▁News":2669,"▁일본의":2670,"▁폴":2671,"▁여론":2672,"▁의원이":2673,"▁군사":2674,"▁자기":2675,"했으나":2676,"스와":2677,"▁아침":2678,"내는":2679,"▁냉":2680,"▁봄":2681,"▁익":2682,"▁이탈리아":2683,"▁베이":2684,"▁상대로":2685,"us":2686,"▁자동":2687,"적을":2688,".7%":2689,"히려":2690,"률을":2691,"▁둘러":2692,"▁씨는":2693,"▁유일":2694,"▁놓고":2695,"지수":2696,"진을":2697,"물이":2698,"으로서":2699,"위의":2700,"ge":2701,"'(":2702,"해양":2703,"구역":2704,"진흥":2705,"26":2706,"관이":2707,"▁바탕으로":2708,"▁거부":2709,"세기":2710,"▁충북":2711,"선의":2712,".6%":2713,"드에서":2714,"드를":2715,"▁벌어":2716,"구의":2717,"nt":2718,"공원":2719,"매수":2720,"▁올림픽":2721,"현대":2722,"ay":2723,"▁노조":2724,"▁35":2725,"조합":2726,"▁상담":2727,"감이":2728,"회담":2729,"▁오늘의":2730,"▁연간":2731,"▁통일":2732,"▁못하고":2733,"(,":2734,"▁핫뉴스":2735,"────":2736,"▁벤":2737,"법인":2738,"▁지금까지":2739,"부문":2740,"▁출마":2741,"▁실제로":2742,"▁80":2743,"▁행복":2744,"▁네이버":2745,"IS":2746,"만큼":2747,"일본":2748,"▁왔다":2749,"학년":2750,"▁지역의":2751,"웨이":2752,"▁사실상":2753,"▁기소":2754,"수록":2755,"지와":2756,"▁관광객":2757,"▁패션":2758,".8%":2759,"▁케이":2760,"▁포함한":2761,"(19":2762,"시의":2763,"28":2764,"▁프리미":2765,"▁혈":2766,"▁고민":2767,"▁늦":2768,"있다":2769,"트남":2770,"▁혹":2771,"▁읽":2772,"ia":2773,"▁한나라":2774,"차가":2775,"▁195":2776,"▁훈련":2777,"▁찍":2778,"▁바꾸":2779,"▁판결":2780,"▁구입":2781,"▁취재":2782,"▁맺":2783,"시민":2784,"▁후보는":2785,"▁부모":2786,"▁술":2787,"▁관심이":2788,"▁불안":2789,"▁믿":2790,"시키는":2791,"TE":2792,"▁이재":2793,"스럽":2794,"▁갈등":2795,"▁팬":2796,"주고":2797,"▁수석":2798,"▁규제":2799,"▁취임":2800,"▁발생한":2801,"무를":2802,"▁m":2803,"▁스트":2804,"심을":2805,"▁영어":2806,"▁신뢰":2807,"▁대회":2808,"▁사실을":2809,"▁주제로":2810,"스티":2811,"▁제품을":2812,"▁시작했다":2813,"군이":2814,"27":2815,"▁연계":2816,"▁꽃":2817,"▁나왔다":2818,"단계":2819,"▁끊":2820,"가기":2821,"▁타이":2822,"▁시도":2823,"▁정기":2824,"어요":2825,"▁새정치":2826,"준다":2827,"100":2828,"▁대표가":2829,"▁아울러":2830,"▁아이폰":2831,"버스":2832,"금은":2833,"▁입주":2834,"▁지켜":2835,"씨를":2836,"▁피부":2837,"▁형성":2838,"단의":2839,"▁정당":2840,"▁잃":2841,"▁36":2842,"▁사람들이":2843,"하나":2844,"▁임대":2845,"▁국민일보":2846,"▁지속적으로":2847,"▁약속":2848,"▁출범":2849,"▁실패":2850,"▁33":2851,"▁억":2852,"▁이번에":2853,"▁소방":2854,"▁젊은":2855,".9%":2856,"량은":2857,"개혁":2858,"보니":2859,"▁차별":2860,"▁주가":2861,"▁이용해":2862,"식에":2863,"▁자녀":2864,"▁집계":2865,"▁언제":2866,"▁앨":2867,"EO":2868,"▁시절":2869,"▁창출":2870,"▁보안":2871,"받은":2872,"▁안에":2873,"체를":2874,"▁보기":2875,"▁묻":2876,"▁참석한":2877,"소가":2878,"거운":2879,"▁협의":2880,"ib":2881,"자에게":2882,"▁펀드":2883,"개를":2884,"파크":2885,"기구":2886,"자원":2887,"리그":2888,"▁명의":2889,"▁지원을":2890,"연구원":2891,"▁디지털":2892,"▁if":2893,"산물":2894,"럼프":2895,"▁그런데":2896,"▁심각":2897,"하겠다는":2898,"▁쌓":2899,"▁금리":2900,"리오":2901,"퓨터":2902,"감독":2903,"▁대중":2904,"fnnews":2905,"▁실시간":2906,"▁오히려":2907,"시킨":2908,"▁전에":2909,"▁재배포":2910,"금리":2911,"키로":2912,"▁정권":2913,"만을":2914,"ED":2915,"▁제공한다":2916,"▁중국의":2917,"▁꾸준":2918,"▁시청":2919,"▁시대":2920,"프리카":2921,"▁매일":2922,"▁위협":2923,"카오":2924,"▁상반기":2925,"and":2926,"▁보수":2927,"▁결과를":2928,"▁일자리":2929,"동에":2930,"라우":2931,"▁태양":2932,"춘천":2933,"29":2934,"▁정의":2935,"명에":2936,"▁전면":2937,"더니":2938,"▁낸":2939,"피스":2940,"북한":2941,"▁해양":2942,"▁'201":2943,"제도":2944,"▁노래":2945,"▁d":2946,"률은":2947,"▁전화":2948,"개국":2949,"▁접수":2950,"▁업종":2951,"▁김정":2952,"▁이익":2953,"▁초청":2954,"선이":2955,"텔레콤":2956,"▁상황에서":2957,"kg":2958,"대구":2959,"적이":2960,"고를":2961,"했는데":2962,"▁여기":2963,"tp":2964,"▁것에":2965,"봤다":2966,"▁공사":2967,"▁위해서는":2968,"단이":2969,"▁땅":2970,"?\"\"":2971,"나무":2972,"▁주의":2973,"▁만드는":2974,"cm":2975,"수로":2976,"기획":2977,"▁평화":2978,"▁function":2979,"▁가능성":2980,"▁구간":2981,"▁소통":2982,"▁특정":2983,"겼다":2984,"▁지분":2985,"▁반발":2986,"▁통화":2987,"▁돌파":2988,"▁재산":2989,"▁한국의":2990,"메라":2991,"▁유엔":2992,"▁지구":2993,"▁드라마":2994,"▁빛":2995,"▁발표한":2996,"▁유로":2997,"▁마무리":2998,"가고":2999,"//":3000,"▁최고의":3001,"긍정":3002,"소에":3003,".'":3004,"▁하며":3005,"▁컬":3006,"▁넘는":3007,"▁합니다":3008,"▁범죄":3009,"주로":3010,"▁2005":3011,"리케이션":3012,"▁법률":3013,"▁못했다":3014,"▁조치":3015,"소는":3016,"시를":3017,"▁앞에서":3018,"▁시리즈":3019,"상은":3020,"▁규정":3021,"▁이곳":3022,"의원":3023,"▁대화":3024,"수수":3025,"▁잘못":3026,"▁이름을":3027,"▁가져":3028,"▁SNS":3029,"호를":3030,"▁다운":3031,"함을":3032,"대에서":3033,"▁휘":3034,"ll":3035,"▁·":3036,"계약":3037,"▁기능을":3038,"비가":3039,"▁빚":3040,"IT":3041,"▁단순":3042,"▁철도":3043,"리한":3044,"▁그림":3045,"▁초기":3046,"영화":3047,"결과":3048,"▁살펴":3049,"▁수원":3050,"▁하반기":3051,"모델":3052,"▁인하":3053,"5000":3054,"세로":3055,"▁사라":3056,"장애":3057,"▁리그":3058,"://":3059,"▁특수":3060,"뮤니":3061,"http":3062,"▁편의":3063,"▁연예":3064,"리핑":3065,"▁안철수":3066,"부모":3067,"▁식품":3068,"▁도움이":3069,"▁흡":3070,"▁말한다":3071,"▁이같이":3072,"스탠":3073,"▁쇼핑":3074,"안이":3075,"\"\"...":3076,"엑스":3077,"일에는":3078,"조원":3079,"▁멀":3080,"▁선임":3081,"▁강한":3082,"국가":3083,"▁운행":3084,"▁나누":3085,"일로":3086,"▁동반":3087,"시험":3088,"내고":3089,"경을":3090,"'...":3091,"▁PC":3092,"▁경우가":3093,"▁자본":3094,"부장":3095,"▁신설":3096,"▁알아":3097,"▁임시":3098,"지사":3099,"▁보장":3100,"ue":3101,"루션":3102,"▁집행":3103,"억원의":3104,"▁부인":3105,"▁전반":3106,"▁h":3107,"▁절반":3108,"▁제공하는":3109,"▁국회에서":3110,"▁늘어나":3111,"널리":3112,"티브":3113,"▁헌법":3114,"▁펼쳐":3115,"35":3116,"▁CJ":3117,"길을":3118,"겠다고":3119,"릭터":3120,"▁자신이":3121,"▁바다":3122,"=\"\"":3123,"면을":3124,"▁프리미엄":3125,"▁사과":3126,"으로도":3127,"▁노출":3128,"항을":3129,"▁중구":3130,"사무":3131,"ve":3132,"▁긍정":3133,"▁아무":3134,"▁그래서":3135,"▁묘":3136,"모바일":3137,"먼트":3138,"으면서":3139,"MS":3140,"사인":3141,"성의":3142,"!!":3143,"판매":3144,"▁혐의를":3145,"▁보통":3146,"▁검찰은":3147,"▁구글":3148,"졌습니다":3149,"▁주말":3150,"▁많아":3151,"▁셈":3152,"▁50%":3153,"▁■":3154,"어로":3155,"▁페이스북":3156,"금이":3157,"▁거주":3158,"▁만족":3159,"▁등에서":3160,"▁때는":3161,"▁등과":3162,"▁돈을":3163,"▁베트남":3164,"▁명예":3165,"▁분류":3166,"(7":3167,"▁폭발":3168,"▁첨":3169,"▁검사":3170,"▁완료":3171,"▁총리":3172,"장인":3173,"드시":3174,"해를":3175,"▁되면":3176,"받고":3177,"▁작용":3178,"▁휴대":3179,"▁힘을":3180,"랫폼":3181,"▁관람":3182,"▁대우":3183,"▁연장":3184,"▁발사":3185,"▁지상":3186,"▁해석":3187,"▁없다는":3188,"▁운전":3189,"▁기온":3190,"ir":3191,"▁아름":3192,"▁대학생":3193,"▁맞춰":3194,"▁인식":3195,"대통령":3196,"~3":3197,"▁나머":3198,"▁헬":3199,"▁34":3200,"▁이유는":3201,"형을":3202,"인사":3203,"▁신한":3204,"웠다":3205,"▁것과":3206,"▁필요가":3207,"세는":3208,"▁올랐다":3209,"▁인증":3210,"이에":3211,"회의에서":3212,"안의":3213,"▁말을":3214,"▁여자":3215,"▁행사를":3216,"▁소유":3217,"▁지하철":3218,"재를":3219,"수익":3220,"▁기부":3221,"역을":3222,"▁쌍":3223,"체가":3224,"총리":3225,"▁불구하고":3226,"됐다고":3227,"▁메르":3228,"mo":3229,"▁쏟":3230,"만이":3231,"▁발굴":3232,"질을":3233,"▁끼":3234,"▁일을":3235,"ation":3236,"▁케":3237,"비용":3238,"▁갤럭시":3239,"▁조합":3240,"▁인물":3241,"▁사이에":3242,"▁보도했다":3243,"▁방식으로":3244,"▁수는":3245,"▁관측":3246,"신을":3247,"▁완성":3248,"▁그가":3249,"크로":3250,"▁류":3251,"▁밝히":3252,"호선":3253,"▁모양":3254,"동의":3255,"함으로써":3256,"▁의사":3257,"종의":3258,"다른":3259,"▁증가한":3260,"▁수밖에":3261,"자료":3262,"분야":3263,"==":3264,"▁매수":3265,"▁직후":3266,"우는":3267,"▁알려져":3268,"▁외부":3269,"▁10%":3270,"▁플레이":3271,"▁캐릭터":3272,"▁다음달":3273,"▁쓴":3274,"당을":3275,"▁e":3276,"▁테러":3277,"▁새로":3278,"받습니다":3279,"▁진입":3280,"▁조건":3281,"해도":3282,"▁도전":3283,"▁해도":3284,"▁뉴시스가":3285,"▁KBS":3286,"▁센":3287,"▁최신":3288,"ver":3289,"▁사이트":3290,"▁하다":3291,"▁개막":3292,"▁탑재":3293,"▁돕":3294,"▁근거":3295,"▁뒷":3296,"▁공감언론":3297,"▁주최":3298,"▁나온다":3299,"▁내린":3300,"(-":3301,"▁네트워크":3302,"▁수가":3303,"▁전력":3304,"하겠다고":3305,"▁인간":3306,"명박":3307,"▁단지":3308,"▁감안":3309,".0%":3310,"▁좋다":3311,"▁제보받습니다":3312,"▁잇따":3313,"자들에게":3314,"▁나섰다":3315,"▁재무":3316,"▁연방":3317,"▁t":3318,"들어":3319,"▁후보가":3320,"운영":3321,"▁불편":3322,"인가":3323,"▁인기를":3324,"▁화재":3325,"▁사퇴":3326,"----":3327,"▁기업의":3328,"▁효율":3329,"서울신문":3330,"▁수용":3331,"수도":3332,"▁대법":3333,"▁무역":3334,"▁효과를":3335,"▁고급":3336,"▁블랙":3337,"로를":3338,"▁45":3339,"gy":3340,"▁떨어진":3341,"▁가구":3342,"▁시작으로":3343,"▁주인":3344,"진이":3345,"▁연기":3346,"받아":3347,"되기":3348,"▁다소":3349,"EW":3350,"▁시간을":3351,"▁즐길":3352,"바마":3353,"주민":3354,"사랑":3355,"점으로":3356,"▁의무":3357,"▁허용":3358,"▁런":3359,"▁빅":3360,"협의회":3361,"포트":3362,"▁명이":3363,"▁완화":3364,"스플레이":3365,"▁친환경":3366,"▁연말":3367,"▁아이뉴스":3368,"▁부사":3369,"▁인권":3370,"시대":3371,"▁뜨":3372,"as":3373,"▁사용할":3374,"▁반드시":3375,"▁개편":3376,"려는":3377,")[":3378,"▁의한":3379,"▁감염":3380,"▁32":3381,"▁부여":3382,"명과":3383,"▁공천":3384,"▁전혀":3385,"▁유출":3386,"▁장관은":3387,"적이고":3388,"36":3389,"투표":3390,"남도":3391,"▁기술을":3392,"▁커피":3393,"들로":3394,"공동":3395,"려고":3396,"▁기상":3397,"▁당부":3398,"▁타고":3399,"▁해소":3400,"의료":3401,"\"\"▶":3402,"ist":3403,"▁확장":3404,"▁쉬":3405,"▁어머니":3406,"▁뽑":3407,"▁지역에":3408,"▁37":3409,"▁경찰에":3410,"▁컴퓨터":3411,"속보를":3412,"▁동일":3413,"▁시간이":3414,"력과":3415,"▁트럼프":3416,"전이":3417,"iz":3418,"분이":3419,"만원으로":3420,"철도":3421,"기고":3422,"▁2004":3423,"▁작성":3424,"▁38":3425,"▁도쿄":3426,"▁늘어난":3427,"▁밖":3428,"▁증가했다":3429,"main":3430,"▁뉴스스탠":3431,"▁맞는":3432,"백화점":3433,"▁...":3434,"IC":3435,"▁융":3436,"▁논란이":3437,"▁이슈":3438,"▁조기":3439,"화학":3440,"시장에서":3441,"▁주고":3442,"▁위해서":3443,"▁소프트":3444,"▁이틀":3445,"▁쇼":3446,"미국":3447,"▁끌어":3448,"광주":3449,"일은":3450,"축은행":3451,"98":3452,"여명이":3453,"정의":3454,"▁한번":3455,"▁점에서":3456,"럴드":3457,"약품":3458,"▁자주":3459,"▁종로":3460,"▁반도":3461,"중에":3462,"▁봉사":3463,"▁육성":3464,"▁이미지":3465,"▁시장에서":3466,"▁챙":3467,"이너":3468,"정에":3469,"▁고위":3470,"초등학교":3471,"하려는":3472,"스에":3473,"▁프로그램을":3474,"▁k":3475,"▁〈":3476,"억달러":3477,"▁샤":3478,"▁서울대":3479,"▁공화":3480,"▁하기":3481,"▁지식":3482,"▁발매":3483,"▁주거":3484,"제한":3485,"▁선출":3486,"하다고":3487,"▁사장은":3488,"월드":3489,"차는":3490,"▁징역":3491,"▁시장의":3492,"▁지키":3493,"seo":3494,"교육청":3495,"서에":3496,"ab":3497,"리트":3498,"▁한미":3499,"▁비난":3500,"▁|":3501,"▁남편":3502,"활동을":3503,"▁지배":3504,"▁높다":3505,"▁경상":3506,"▁MBC":3507,"▁코스닥":3508,"댓글":3509,"ut":3510,"▁기타":3511,"▁KB":3512,"▁밑":3513,"▁주관":3514,"▁상황을":3515,"신청":3516,"▁취득":3517,"상으로":3518,"▁얘기":3519,"일간":3520,"▁도착":3521,"조를":3522,"규직":3523,"▁더불어민주당":3524,"▁노인":3525,"▁옛":3526,"면적":3527,"건강":3528,"해진":3529,"ser":3530,"▁나와":3531,"▁국회의원":3532,"34":3533,"▁구성된":3534,"▁보이는":3535,"EC":3536,"▁빠른":3537,"ct":3538,"평균":3539,"▁주력":3540,"사이트":3541,"수사":3542,"권의":3543,"PC":3544,"▁원하는":3545,"▁성폭":3546,",(":3547,"나다":3548,"▁후원":3549,"▁작가":3550,"▁확인할":3551,"▁관련된":3552,"북도":3553,"금지":3554,"▁데뷔":3555,"▁시장에":3556,"▁주문":3557,"▁강원도":3558,"박근혜":3559,"▁괴":3560,"▁꼭":3561,"없는":3562,"면서도":3563,"▁뛰어":3564,"▁나타나":3565,"구청":3566,"최근":3567,"운드":3568,"▁진단":3569,"▁안보":3570,"▁y":3571,"▁적발":3572,"▁폐지":3573,"▁©":3574,"▁진행된다":3575,"▁여기에":3576,"▁남자":3577,"▁re":3578,"▁채택":3579,"하였으며":3580,"▁안에서":3581,"▁위안":3582,"▁맞춤":3583,"▁시는":3584,"▁갖춘":3585,"▁추가로":3586,"ang":3587,"되었고":3588,"In":3589,"▁높이":3590,"▁오래":3591,"▁상호":3592,"▁횡":3593,"식으로":3594,"▁안내":3595,"운용":3596,"▁가치":3597,"▁플랫폼":3598,"는지":3599,"베이":3600,"현재":3601,"▁운용":3602,"▁이정":3603,"▁상임":3604,"▁아동":3605,"▁천안":3606,"fo":3607,"▁수수":3608,"소프트":3609,"년생":3610,"건축":3611,"소에서":3612,"▁표준":3613,"▁메이":3614,"▁습":3615,"▁던":3616,"▁있었던":3617,"▁동부":3618,"▁환자":3619,"▁측면":3620,"dex":3621,"▁대북":3622,"었습니다":3623,"▁바뀌":3624,"▁보이":3625,"▁이용할":3626,"▁사람은":3627,"중공업":3628,"아가":3629,"OS":3630,"액을":3631,"▁20%":3632,"비는":3633,"시티":3634,"▁진행한다":3635,"수원":3636,"생산":3637,"1.":3638,"무역":3639,"점은":3640,"▁사는":3641,"공개":3642,"액이":3643,"인천":3644,"▁선진":3645,"▁비슷한":3646,"▁흐름":3647,"▁급증":3648,"▁센터":3649,"▁외환":3650,"주식":3651,"행정":3652,"류를":3653,"공간":3654,"...'":3655,"▁자격":3656,"▁30%":3657,"▁문제는":3658,"상황":3659,"▁새롭게":3660,"▁들어가":3661,"▁가는":3662,"▁실질":3663,"▁됐":3664,"점에":3665,"어야":3666,"qu":3667,"▁가슴":3668,"▁응답":3669,"FA":3670,"▁기아":3671,"▁단일":3672,"▁소설":3673,"▁해서":3674,"르크":3675,"라면":3676,"▁체포":3677,"▁현금":3678,"▁걱":3679,"계가":3680,"▁수주":3681,"▁불러":3682,"명한":3683,"지에서":3684,"시부터":3685,"▁가수":3686,"트는":3687,"▁객":3688,"▁했습니다":3689,"▁농업":3690,"▁등도":3691,"어도":3692,"▁뉴스스탠드에서":3693,"31":3694,"▁2018":3695,"▁대표적인":3696,"▁왔":3697,"제에":3698,"▁그린":3699,"년을":3700,"▁늘었다":3701,"▁경향":3702,"▁한나라당":3703,"티즌":3704,"▁시장은":3705,"▁반응을":3706,"▁기회를":3707,"검사":3708,"직을":3709,"▁거듭":3710,"량의":3711,"▁시장을":3712,"▁갖추":3713,"▁관계자":3714,"▁당초":3715,"르기":3716,"▁김종":3717,"선에":3718,"▁커뮤니":3719,"▁옆":3720,"▁전해졌다":3721,"론을":3722,"만명":3723,"▁세상":3724,"▁건립":3725,"▁검색":3726,"▁이내":3727,"▁Copyright":3728,"▁자리를":3729,"자체":3730,"인들이":3731,"시켰다":3732,"년의":3733,"▁담은":3734,"▁보니":3735,"▁배경":3736,"▁아르":3737,"▁포스코":3738,"▁슈퍼":3739,"코스":3740,"▁내가":3741,"▁실천":3742,")·":3743,"▁150":3744,"자기":3745,"위원회는":3746,"▁최고위원":3747,"▁이외":3748,"봉사":3749,"▁간담":3750,"▁동아":3751,"▁부진":3752,"▁축소":3753,"시킬":3754,"▁처벌":3755,"▁주차":3756,"▁홍콩":3757,"▁밝힌":3758,"올해":3759,"▁방문해":3760,"구는":3761,"▁메시":3762,"전재":3763,"▁앨범":3764,"Se":3765,"▁효과가":3766,"계의":3767,"▁동물":3768,"가스":3769,"우고":3770,"분께":3771,"니어":3772,"▁기자회견을":3773,"▁※":3774,"▁삭":3775,"문학":3776,"력은":3777,"민주연합":3778,"▁철저":3779,"마이":3780,"▁살해":3781,"▁나머지":3782,"▁열린다":3783,"▁하는데":3784,"▁속에":3785,"300":3786,"▁연출":3787,"가로":3788,"▁피해를":3789,"물관":3790,"▁향상":3791,"구가":3792,"플러스":3793,"적이다":3794,"도와":3795,"안은":3796,"▁권한":3797,"▁교체":3798,"▁원을":3799,"▁조사를":3800,"▁강력한":3801,"▁짓":3802,"▁교과":3803,"▁마찬":3804,"스마트":3805,"작용":3806,"▁in":3807,"▁집단":3808,"만달러":3809,"▁복합":3810,"▁중에":3811,"▁가을":3812,"▁구제":3813,"▁제거":3814,"▁합병":3815,"당한":3816,"2-":3817,"▁가격은":3818,"▁욕":3819,"▁북한이":3820,"▁충격":3821,"회의를":3822,"▁동해":3823,"에만":3824,"생명":3825,"▁신경":3826,"▁골프":3827,"▁급등":3828,"▁크리스":3829,"제공":3830,"▁알려진":3831,"▁하나로":3832,"▁없을":3833,"▁종교":3834,"▁마찬가지":3835,"▁옷":3836,"대와":3837,"▁포인트":3838,"▁48":3839,"기기":3840,"▁SBS":3841,"▁도움을":3842,"▁쏟아":3843,"▁뜻을":3844,"▁모아":3845,"스러운":3846,"▁혜택을":3847,"▁개통":3848,"▁자원":3849,"생을":3850,"▁부과":3851,"▁심사":3852,"▁브라질":3853,"▁전주":3854,"▁공시했다":3855,"99":3856,"어서":3857,"위기":3858,"▁카메라":3859,"▁뿌":3860,"▁나오고":3861,"보면":3862,"▁수립":3863,"▁창조":3864,"’(":3865,"▁오바마":3866,"▁사용하는":3867,"▁홀":3868,"▁충청":3869,"수석":3870,"▁로마":3871,"리어":3872,"여성":3873,"▁▷":3874,"제주":3875,"▁찾는":3876,"▁짧":3877,"▁꾸준히":3878,"▁균":3879,"▁무단전재":3880,"▁서초":3881,"▁내다":3882,"▁기억":3883,"▁나갈":3884,"37":3885,"▁대해서도":3886,"▁누리":3887,"▁스토":3888,"▁비행":3889,"▁바란다":3890,"▁즐기는":3891,"▁평가를":3892,"▁회장이":3893,"▁책임을":3894,"▁단독":3895,"▁얼마나":3896,"▁증거":3897,"comment":3898,"▁그렇게":3899,"▁들여":3900,"▁미디어":3901,"▁선박":3902,"▁있어서":3903,"▁of":3904,"▁원자":3905,"년이":3906,"▁되지":3907,"지컬":3908,"▁저렴":3909,"▁새벽":3910,"처리":3911,"▁배출":3912,"리드":3913,"광역":3914,"▁남부":3915,"▁포함해":3916,"▁충돌":3917,"▁나는":3918,"▁정치적":3919,"소비":3920,"▁적극적으로":3921,"▁에어":3922,"LG":3923,"▁일어나":3924,"▁흘":3925,"▁한화":3926,"우스":3927,"▁자세한":3928,"▁美":3929,"▁빠르게":3930,"▁품질":3931,"이었던":3932,"노조":3933,"▁비가":3934,"▁우려가":3935,"즈니스":3936,"▁말씀":3937,"▁획득":3938,"▁신문":3939,"으니":3940,"카이":3941,"권에":3942,"▁지휘":3943,"▁상위":3944,"권이":3945,"▁실험":3946,"▁정리":3947,"▁합동":3948,"받는":3949,"▁장애인":3950,"▁성능":3951,"▁유사":3952,"▁요금":3953,"기능":3954,"▁학습":3955,"쪽으로":3956,"멤버":3957,"이즈":3958,"▁대폭":3959,"전거":3960,"▁추석":3961,"▁김성":3962,"▁겁":3963,"▁어제":3964,"▁제외한":3965,"▁성과를":3966,"▁의심":3967,"▁탄핵":3968,"\"\",":3969,"▁초대":3970,"▁파견":3971,"상승":3972,"▁오르":3973,"'\"":3974,"▁하여":3975,"▁시작한":3976,"▁상대적으로":3977,"인터넷":3978,"▁없고":3979,"▁임금":3980,"▁90":3981,"▁위기":3982,"▁이야기를":3983,"▁보조":3984,"▁다르":3985,"unt":3986,"▁공항":3987,"▁a":3988,"▁선호":3989,"▁신임":3990,"▁차단":3991,"▁혹은":3992,"▁느낌":3993,"ON":3994,"▁해상":3995,"사업을":3996,"▁400":3997,"▁실현":3998,"▁아이템":3999,"라스":4000,"월에는":4001,"에너지":4002,"▁쌀":4003,"kmib":4004,"▁재미":4005,"▁정비":4006,"▁아내":4007,"▁없다고":4008,"▁벽":4009,"▁대학교":4010,"세의":4011,"세에":4012,"▁빠져":4013,"목을":4014,"▁2,":4015,"38":4016,"▁속에서":4017,"▁답변":4018,"수산":4019,"▁여부를":4020,"▁다이":4021,"▁웨":4022,"은행은":4023,"▁운영하는":4024,"▁미술":4025,"행사":4026,"▁개념":4027,"세종":4028,"▁계약을":4029,"net":4030,"류의":4031,"▁취소":4032,"▁생각한다":4033,"▁곳곳":4034,"신의":4035,"영업":4036,"체험":4037,"li":4038,"밴드":4039,"▁법무":4040,"▁휴대폰":4041,"보세요":4042,"▁이명박":4043,"▁화학":4044,"▁느끼":4045,"미디어":4046,"화와":4047,"국내":4048,"▁트위터":4049,"2%":4050,"▁협약":4051,"아트":4052,"▁미리":4053,"연을":4054,"▁윈":4055,"▁리더":4056,"▁정말":4057,"▁적이":4058,"어는":4059,"▁수정":4060,"▁밖에":4061,"지수는":4062,"▁벨":4063,"▁과정을":4064,"▁우리가":4065,"공화":4066,"▁대변인은":4067,"▁가까운":4068,"▁유도":4069,"▁국내외":4070,"▁일단":4071,"ung":4072,"▁비밀":4073,"mp":4074,"▁뿐만":4075,"원전":4076,"범죄":4077,"▁개설":4078,"▁내용은":4079,"▁이란":4080,"ri":4081,"▁협상":4082,"▁생태":4083,"ick":4084,"▁경고":4085,"피해":4086,"▁창원":4087,"▁있지":4088,"어진":4089,"▁지역에서":4090,"가와":4091,"효과":4092,"되었으며":4093,"적은":4094,"▁포기":4095,"▁예측":4096,"▁행동":4097,"▁2003":4098,"▁표시":4099,"seoul":4100,"(8":4101,"▁버스":4102,"▁체계":4103,"간다":4104,"산을":4105,"시키고":4106,"▁봐":4107,"이기도":4108,"▁춘천":4109,"뿐만":4110,"려면":4111,"▁계획을":4112,"▁이로":4113,"유의":4114,"▁셈이다":4115,"▁점차":4116,"▁옮겨":4117,"지게":4118,"▁못하는":4119,"▁부상":4120,"스탄":4121,"▁민족":4122,"지법":4123,"분에":4124,"▁자치":4125,"▁나눠":4126,"▁단속":4127,"았고":4128,"이하":4129,"구에":4130,"▁아니냐":4131,"▁부품":4132,"▁상무":4133,"시마":4134,"▁상징":4135,"▁내에":4136,"▁2002":4137,"등록":4138,"이의":4139,"box":4140,"당에서":4141,"▁자살":4142,"▁정확한":4143,"▁문의":4144,"▁꼬":4145,"문이":4146,"▁분리":4147,"▁39":4148,"경쟁":4149,"45":4150,"▁악화":4151,"▁특별한":4152,"▁출석":4153,"▁초등학교":4154,"▁결합":4155,"▁최우":4156,"▁실종":4157,"매매":4158,"상담":4159,"었지만":4160,"대문":4161,"군을":4162,"▁소프트웨어":4163,"기지":4164,"▁김정은":4165,"치료":4166,"ital":4167,"▁중간":4168,"받았다":4169,"▁고양":4170,"▁힘들":4171,"▁내일":4172,"▁가로":4173,"▁채널":4174,"까지는":4175,"유럽":4176,"▁공직":4177,"ood":4178,"테인":4179,"미나":4180,"▁분석했다":4181,"▁스마트폰으로":4182,"▁매입":4183,"▁굴":4184,"▁걷":4185,"▁증정":4186,"레이드":4187,"ck":4188,"▁필리":4189,"학을":4190,"▁일제":4191,"▁구독":4192,"창조":4193,"트리":4194,"주기":4195,"▁개별":4196,"▁NEW":4197,"▁동원":4198,"어가":4199,"기념":4200,"▁이벤트를":4201,"▁탓":4202,"▁낮아":4203,"▁가격이":4204,"재판":4205,"▁저녁":4206,"▁재개":4207,"식은":4208,"면에":4209,"▁풍부":4210,"▁5000":4211,",\"[":4212,"이상":4213,"▁받지":4214,"▁시내":4215,"자들":4216,"▁압박":4217,"CC":4218,"▁최초의":4219,"▁FTA":4220,"▁크다":4221,"▁씨가":4222,"르트":4223,"ol":4224,"▁무료로":4225,"▁자율":4226,"았던":4227,"▁특파":4228,"리며":4229,"▁시장이":4230,"▁교사":4231,"번호":4232,"▁인력":4233,"▁태풍":4234,"US":4235,"표를":4236,"▁본격적인":4237,"클럽":4238,"▁변동":4239,"3)":4240,"▁반도체":4241,"▁the":4242,"1%":4243,"▁미사일":4244,"치면":4245,"안보":4246,"▁이용한":4247,"단에":4248,"▁이승":4249,"▁부회":4250,"3%":4251,"울산":4252,"▁것처럼":4253,"hoto":4254,"▁동영상":4255,"ra":4256,"▁월드컵":4257,"▁호소":4258,"▁솔루션":4259,"▁44":4260,"▁기울":4261,"▁점유":4262,"\"\">":4263,"▁아이디어":4264,"많은":4265,"현장":4266,"▁전망했다":4267,"하고자":4268,"ery":4269,"▁동기":4270,"축제":4271,"▁극복":4272,"▁상황이":4273,"센터에서":4274,"▁것입니다":4275,"▁class":4276,"는데요":4277,"▁불리는":4278,"▁전개":4279,"▁관련한":4280,"정상":4281,"IN":4282,"▁서민":4283,"▁새정치민주연합":4284,"▁성남":4285,"▁오피스":4286,"os":4287,"원장":4288,"▁이같은":4289,"▁법인":4290,"여행":4291,"▁했지만":4292,"▁끝에":4293,"▁무상":4294,"▁삶을":4295,"▁떠나":4296,"이면":4297,"지검":4298,"자들을":4299,"39":4300,"한다면":4301,"▁등이다":4302,"전은":4303,"▁야구":4304,"이슈":4305,"▁증시":4306,"▁들고":4307,"서트":4308,"▁흉":4309,"▁카페":4310,"▁형사":4311,"조직":4312,"▁국민의당":4313,"라우드":4314,"ide":4315,"▁CEO":4316,"▁가리":4317,"▁희생":4318,"um":4319,"▁55":4320,"▁가능성을":4321,"▁Q":4322,"▁하나의":4323,"군에":4324,"▁목표로":4325,"▁강제":4326,"get":4327,"7%":4328,"이로":4329,"훼손":4330,"▁계기로":4331,"▁공장":4332,"▁동의":4333,"고등학교":4334,"▁캐나다":4335,"▁멤버":4336,"▁써":4337,"▁훨":4338,"▁문을":4339,"igital":4340,"독교":4341,"▁활발":4342,"▁완전히":4343,"▁한반도":4344,"소로":4345,"건이":4346,"▁분명":4347,"▁만난":4348,"2000":4349,"▁평소":4350,"ook":4351,"▁사항":4352,"▁역대":4353,"▁수준으로":4354,"겠지만":4355,"▁입학":4356,"▁르":4357,"국에":4358,"▁임직원":4359,"세포":4360,"▁않으면":4361,"▁거리":4362,"▁GS":4363,"rank":4364,"▁충분히":4365,"▁엄마":4366,"▁주인공":4367,"\",":4368,"종목":4369,"▁개의":4370,"▁설정":4371,"전쟁":4372,"▁개방":4373,"▁공약":4374,"▁사실이":4375,"주에":4376,"▁스페인":4377,"sele":4378,"서가":4379,"보기":4380,"▁인프라":4381,"▁지시":4382,"▁훨씬":4383,"CBS":4384,"▁순간":4385,"Id":4386,"평양":4387,"▁46":4388,"News":4389,"▁정책을":4390,"▁벗어나":4391,"▁장비":4392,"이던":4393,"른다":4394,"▁실무":4395,"▁섭":4396,"▁만들기":4397,"▁하면서":4398,"art":4399,"▁진술":4400,"▁참석해":4401,"▁복귀":4402,"▁했다고":4403,"▁반복":4404,"스테":4405,"▁곤":4406,"▁학부모":4407,"▁꺼":4408,"▁농협":4409,"cbox":4410,"▁환율":4411,"렀다":4412,"▁가동":4413,"▁3000":4414,"▁척":4415,"▁190":4416,"디아":4417,"▁공공기관":4418,"수요":4419,"▁개성":4420,"▁중요하다":4421,"▁여객":4422,"체의":4423,"▁출판":4424,"2,":4425,"▁대기":4426,"▁아프리카":4427,"▁코리아":4428,"▁기업이":4429,"▁하늘":4430,"선은":4431,"▁엔진":4432,"▁이른바":4433,"▁총재":4434,"▁CN":4435,"▁아마":4436,"▁지원하는":4437,"됐고":4438,"▁찾은":4439,"중인":4440,"55":4441,"▁개입":4442,"▁연합뉴스":4443,"무성":4444,"였고":4445,"고객":4446,"▁후에":4447,"▁차원에서":4448,"44":4449,"통상":4450,"▁법정":4451,"▁머물":4452,"였습니다":4453,"▁결의":4454,"하세요":4455,"MW":4456,"▁종료":4457,"▁칠":4458,"▁대부분의":4459,"▁교황":4460,"전에서":4461,"▁지진":4462,"▁기획재":4463,"▁나오는":4464,"▁시스템을":4465,"▁형태로":4466,"▁출전":4467,"일의":4468,"만원의":4469,"포르":4470,"▁누구나":4471,"▁원래":4472,"▁가까이":4473,"로그":4474,"▁죄":4475,"son":4476,"▁우주":4477,"질이":4478,"검찰":4479,"ranking":4480,"▁앞둔":4481,"▁제재":4482,"▁화장품":4483,"▁Digital":4484,"사관":4485,"▁받아들":4486,"▁구체적인":4487,"▁덜":4488,"기금":4489,"▁>":4490,"▁취약":4491,"▁역임":4492,"▁부실":4493,"지기":4494,"▁외에도":4495,"▁불가능":4496,"▁지자체":4497,"소의":4498,"▁이때":4499,"▁틀":4500,"▁신속":4501,"▁수학":4502,"싱턴":4503,"▁실행":4504,"▁바라":4505,"▁몽":4506,"▁NH":4507,"었으며":4508,"▁확실":4509,"받을":4510,"▁적절":4511,"▁방사":4512,"▁축제":4513,"▁결제":4514,"▁시가":4515,"▁위에":4516,"질환":4517,"▁마음을":4518,"▁모여":4519,"▁않도록":4520,"▁내용의":4521,"보건":4522,"▁기존의":4523,"법에":4524,"▁테마":4525,"▁야당":4526,"▁연주":4527,"▁상품을":4528,"▁달하는":4529,"▁아주":4530,"시와":4531,"▁스위":4532,"포럼":4533,"▁합격":4534,"▁장학":4535,"국을":4536,"▁페이":4537,"인민":4538,"9%":4539,"▁석유":4540,"향을":4541,"보증":4542,"▁때까지":4543,"치지":4544,"▁도심":4545,"▁특파원":4546,"순실":4547,"▁보급":4548,"▁공략":4549,"▁가계":4550,"▁기대된다":4551,"▁내고":4552,"▁시범":4553,"▁서해":4554,"▁눈길을":4555,"바로":4556,"span":4557,"▁전문가들은":4558,"!'":4559,"분간":4560,"노트":4561,"상공":4562,"▁다니":4563,"▁셀":4564,"76":4565,"▁블루":4566,"의견":4567,"▁Copyrights":4568,"가능":4569,"▁특징이다":4570,"네시아":4571,"▁구현":4572,"▁도발":4573,"용차":4574,"일과":4575,"pe":4576,"니터":4577,")\"":4578,"▁싶은":4579,"▁네티즌":4580,"▁‘201":4581,"▁호남":4582,"▁파트":4583,"▁인공":4584,"▁다가":4585,"▁곳이":4586,"▁출입":4587,"▁노력을":4588,"화로":4589,"화의":4590,"▁줄어들":4591,"▁유리":4592,"력의":4593,"설팅":4594,"▁만나보세요":4595,"▁내달":4596,"▁자리에서":4597,"800":4598,"▁승인":4599,"▁해군":4600,"전의":4601,"▁생존":4602,"▁X":4603,"타운":4604,"동아일보":4605,"▁초과":4606,"▁활용해":4607,"▁종로구":4608,"AP":4609,"▁바이오":4610,"▁매장":4611,"가에":4612,"행위":4613,"▁부채":4614,"추진":4615,"▁드러났다":4616,"지면":4617,"▁애니":4618,"▁진보":4619,"▁개발한":4620,"▁해운":4621,"▁아버지":4622,"▁강릉":4623,"▁위원장은":4624,"건의":4625,"▁특검":4626,"별로는":4627,"▁나무":4628,"▁유입":4629,"▁차지했다":4630,"미술":4631,"했기":4632,"▁제일":4633,"글로벌":4634,"키는":4635,"드로이드":4636,"신이":4637,"준비":4638,"측은":4639,"히는":4640,"▁이웃":4641,"▁]":4642,"▁맨":4643,"령을":4644,"ull":4645,"씨와":4646,"MC":4647,"▁이시간":4648,"▁공부":4649,"식에서":4650,"▁소형":4651,"▁이처럼":4652,"▁양성":4653,"체계":4654,"억원에":4655,"▁시상":4656,"▁넥":4657,"▁내용이":4658,"▁탄생":4659,"▁한정":4660,"▁등급":4661,"▁이중":4662,"해왔다":4663,"▁120":4664,"타임":4665,"4%":4666,"▁경선":4667,"▁까":4668,"심사":4669,"▁교육을":4670,"▁작업을":4671,"▁댓글":4672,"▁뮤지컬":4673,"▁65":4674,"▁런던":4675,"물의":4676,"▁조언":4677,"▁나의":4678,"PG":4679,"실장":4680,"▁앉":4681,"▁초반":4682,"▁백화점":4683,"SK":4684,"헤럴드":4685,"보가":4686,"▁총괄":4687,"▁시기":4688,"배우":4689,"▁방지":4690,"▁그러면서":4691,"▁바로가기":4692,"방을":4693,"8%":4694,"스에서":4695,"ame":4696,"▁핀":4697,"▁앵커":4698,"▁참여한":4699,"▁이행":4700,"her":4701,"트위터":4702,"▁미세":4703,"▁손을":4704,"▁이래":4705,"스럽게":4706,"스티벌":4707,"'▶":4708,"년도":4709,"▁김태":4710,"함에":4711,"▁붕":4712,"상태":4713,"▁선생":4714,"@▶":4715,"▁명칭":4716,"▁맞춤형":4717,"사이":4718,"시코":4719,"올림픽":4720,"▁부처":4721,"▁말이":4722,"판을":4723,"▁이주":4724,"▁수준의":4725,"혔다":4726,"▁어려움을":4727,"▁인재":4728,"▁가량":4729,"▁MB":4730,"77":4731,"유가":4732,"▁보상":4733,"▁라인":4734,"▁경우에는":4735,"▁필수":4736,"▁받는다":4737,"개선":4738,"▁적은":4739,".‘":4740,"▁김현":4741,"총장":4742,"▁내세":4743,"▁소녀":4744,"▁IS":4745,"6%":4746,"인들의":4747,"▁목적으로":4748,"▁주재":4749,"▁치열":4750,"query":4751,"▁연휴":4752,"시장의":4753,"실험":4754,"▁조치를":4755,"▁빨리":4756,"▁어플":4757,"담당":4758,"▁외에":4759,"▁==":4760,"▁수치":4761,"▁예약":4762,"95":4763,"▁커뮤니티":4764,"84":4765,"파이":4766,"▁많았다":4767,"tab":4768,"▁가졌다":4769,"됐으며":4770,"▁값":4771,"▁직업":4772,"LS":4773,"터리":4774,"▁착수":4775,"세다":4776,"33":4777,"▁경쟁력":4778,"▁서울중앙":4779,"해온":4780,"▁조작":4781,"천만":4782,"▁임원":4783,"OU":4784,"아야":4785,"gye":4786,"▁규모로":4787,"▁설명이다":4788,"이라면":4789,"▁열었다":4790,"▁뭐":4791,"▁걱정":4792,"▁따뜻":4793,"▁본다":4794,"▁내리":4795,"▁사진을":4796,"▁어렵다":4797,"예산":4798,"▁비즈니스":4799,"▁화제":4800,"됐던":4801,"▁끌고":4802,"서의":4803,"조차":4804,"▁있으나":4805,"채널":4806,"▁명품":4807,"▁성폭행":4808,"▁자전거":4809,"▁물리":4810,"고속도로":4811,"▁겁니다":4812,"▁필리핀":4813,"▁신선":4814,"▁카카오":4815,"람회":4816,"▁당첨":4817,"▁내에서":4818,"부로":4819,"▁상태다":4820,"▁통계":4821,"조건":4822,"▁질환":4823,"▁구분":4824,"▁자료를":4825,"분석":4826,"▁생명":4827,"▁단기":4828,"자유":4829,"▁검증":4830,"▁우수한":4831,"실이":4832,"▁풀이":4833,"▁경계":4834,"적으로는":4835,"▁못해":4836,"종을":4837,"▁대해서":4838,"▁분야에서":4839,"▁수요가":4840,"장비":4841,"▁현재까지":4842,"▁청약":4843,"▁동양":4844,"나가":4845,"vent":4846,"~5":4847,"돼야":4848,"▁중부":4849,"차로":4850,"▁쉽지":4851,"소송":4852,"▁자랑":4853,"짜리":4854,"▁승리":4855,"분양":4856,"▁당부했다":4857,"▁상황이다":4858,"아파트":4859,"▁용산":4860,"▁회담":4861,"▁사건을":4862,"▁절대":4863,"▁게시":4864,"ub":4865,"▁질병":4866,"▁세워":4867,"혁명":4868,"▁원전":4869,"수술":4870,"▁쓸":4871,"▁무기":4872,"▁LTE":4873,"wel":4874,"▁듣고":4875,"▁2001":4876,"메이션":4877,"데이터":4878,"▁간의":4879,"▁앞에":4880,"권은":4881,"▁심각한":4882,"▁기반으로":4883,"▁사업에":4884,"▁포항":4885,"▁청주":4886,"개가":4887,"▁마친":4888,"▁진행하고":4889,"과장":4890,"▁기회":4891,"▁준다":4892,"팀은":4893,"만여":4894,"▁소환":4895,"▁호주":4896,"▁녹색":4897,"▁후회":4898,"▁적합":4899,"▁질문에":4900,"▁아우":4901,"▁장착":4902,"▁브리핑":4903,"▁선보인다":4904,"▁클럽":4905,"▁보유한":4906,"마크":4907,"96":4908,"▁든":4909,"▁전일":4910,"테인먼트":4911,"▁이들이":4912,"화는":4913,"션을":4914,"▁메뉴":4915,"86":4916,"▁차이가":4917,"▁교환":4918,"이라도":4919,"DP":4920,"▁로봇":4921,"인에":4922,"▁조사됐다":4923,"인권":4924,"▁이르":4925,"▁제공하고":4926,"▁제목":4927,"▁하게":4928,"▁거론":4929,"오른":4930,"▁탁":4931,"주년을":4932,"▁컬러":4933,"▁점이":4934,"졌고":4935,"(201":4936,"▁제정":4937,"대한민국":4938,"시까지":4939,"▁강의":4940,"~4":4941,"ie":4942,"▁낳":4943,"▁손해":4944,"▁편성":4945,"피아":4946,"사들이":4947,"▁베이징":4948,"▁업무를":4949,"▁끝나":4950,"ore":4951,"▁육군":4952,"▁날씨":4953,"▁승객":4954,"ald":4955,"NA":4956,"HD":4957,"▁입찰":4958,"▁노하우":4959,"▁고통":4960,"85":4961,"▁◀":4962,"▁北":4963,"레일":4964,"74":4965,"▁준공":4966,"▁승진":4967,"▁메르스":4968,"▁건조":4969,"▁부장":4970,"▁오랜":4971,"▁했던":4972,"만으로":4973,"고기":4974,"▁왼쪽":4975,"▁움직임":4976,"▁시리아":4977,"▁폭행":4978,"▁올해는":4979,"같은":4980,"▁中":4981,"▁1990":4982,"▁내정":4983,"▁적극적인":4984,"▁앤":4985,"▁소셜":4986,"ail":4987,"▁학생들이":4988,"IP":4989,"문제":4990,"-1":4991,"▁도와":4992,"▁고수":4993,"▁대리":4994,"</":4995,"ak":4996,"▁이상이":4997,"미터":4998,".12":4999,"▁전세":5000,"▁미니":5001,"ine":5002,"▁힐":5003,"▁고발":5004,"데이트":5005,"과학기술":5006,"대행":5007,"▁잉":5008,"화문":5009,"호는":5010,"▁이종":5011,"▁다이어":5012,"프로그램":5013,"lick":5014,"기록":5015,"tic":5016,"▁유니":5017,"▁회장의":5018,"고가":5019,"▁행사는":5020,"국장":5021,"▁교류":5022,"▁사람의":5023,"▁아름다운":5024,"▁기계":5025,"▁나눔":5026,"▁이어질":5027,"▁유동":5028,"이어서":5029,"▁잇따라":5030,"멕시코":5031,"▁산하":5032,"▁숲":5033,"공연":5034,"]\"\"":5035,"지주":5036,"가량":5037,"▁김동":5038,"75":5039,"▁캠프":5040,"ET":5041,"도에서":5042,"▁득":5043,"피언":5044,"▁양국":5045,"▁활용한":5046,"▁여수":5047,"음악":5048,"슬람":5049,"어났다":5050,"▁안팎":5051,"로의":5052,"▁매출액":5053,"▁테스트":5054,"▁맑":5055,"(10":5056,"개로":5057,"▁의결":5058,"▁정식":5059,"▁지연":5060,"공장":5061,"▁심리":5062,"되자":5063,"본부장":5064,"▁영양":5065,"물로":5066,"▁하락한":5067,"▁김재":5068,"로이":5069,"▁현행":5070,"▁띄":5071,"워드":5072,"▁밥":5073,"▁상업":5074,"▁시작된":5075,"▁현장에서":5076,"▁중동":5077,"▁클래":5078,"▁비판했다":5079,"법은":5080,"▁돌려":5081,"교회":5082,"단독":5083,"▁관객":5084,"▁동남":5085,"▁우리는":5086,"▁수여":5087,"▁계좌":5088,"tn":5089,"▁모르":5090,"친상":5091,"900":5092,"기온":5093,"▁정착":5094,"▁생방송":5095,"▁트렌":5096,"no":5097,"▁모니터":5098,"조사를":5099,"▁음반":5100,"▁을":5101,"▁통상":5102,"▁가르":5103,"력에":5104,"미래":5105,"▁연극":5106,"▁오스트":5107,"▁2017.0":5108,"▁저지":5109,"제약":5110,"▁치료를":5111,"▁추락":5112,"▁뛰어난":5113,"▁청문":5114,"ted":5115,"멘트":5116,"▁받게":5117,"건으로":5118,"ort":5119,"▁IC":5120,"▁운영하고":5121,"무현":5122,"만한":5123,"▁가치를":5124,"▁기록한":5125,"문의":5126,"▁실내":5127,"▁디자":5128,"실에":5129,"aper":5130,"스키":5131,"▁은퇴":5132,"▁전세계":5133,"▁고등학교":5134,"▁신세계":5135,"▁패키":5136,"▁비대":5137,"▁굳":5138,"▁전라":5139,"▁통보":5140,"\")":5141,"▁이들의":5142,"▁요즘":5143,"▁올려":5144,"▁화면":5145,"▁늘고":5146,"▁할머니":5147,"▁40%":5148,"▁기독교":5149,"비전":5150,"▁유기":5151,"세청":5152,"사항":5153,"▁첨단":5154,"▁도내":5155,"▁정체":5156,"▁인도네시아":5157,"▁규모가":5158,"▁女":5159,"▁참여하는":5160,"▁유명한":5161,"ER":5162,"미널":5163,"▁to":5164,"▁한강":5165,"▁투자를":5166,"클릭":5167,"▁박정":5168,"▁600":5169,"▁통제":5170,"▁활약":5171,"수와":5172,"▁인구는":5173,"▁파리":5174,"▁광역":5175,"▁용인":5176,"책임":5177,"▁스탠":5178,"▁주주":5179,".10":5180,"지금":5181,"▁접촉":5182,"교사":5183,"me":5184,"인도":5185,"ag":5186,"▁섹":5187,"▁그를":5188,"▁제약":5189,"터테인먼트":5190,"')":5191,"법이":5192,"▁파트너":5193,"▁싱글":5194,"▁남은":5195,"심의":5196,"▁문학":5197,"프리":5198,"▁최선을":5199,"▁현황":5200,"▁변호사":5201,"▁관계를":5202,"▁수십":5203,"▁천연":5204,"▁지속적인":5205,"광역시":5206,"▁선도":5207,"설을":5208,"소방":5209,"▁국채":5210,"트의":5211,"▁예고":5212,"연대":5213,"▁직무":5214,"▁원유":5215,"▁이론":5216,"mment":5217,"년만에":5218,"3000":5219,"▁경주":5220,"층의":5221,"65":5222,"▁보입니다":5223,"지자":5224,"▁저장":5225,"▁터키":5226,"▁바닥":5227,"▁70%":5228,"▁말했습니다":5229,"▁검거":5230,"▁일대":5231,"▁물러":5232,"ou":5233,"▁떨어져":5234,"▁비중이":5235,"버그":5236,"▁나올":5237,"▁물가":5238,"치로":5239,"▁총리는":5240,"Copyright":5241,"▁일자":5242,"위원회가":5243,"▁가스":5244,"역에서":5245,"력으로":5246,"▁보유하고":5247,"작업":5248,"4)":5249,"▁시사":5250,"▁언어":5251,"▁김대":5252,"▁이끌어":5253,"▁상향":5254,"망을":5255,"▁캠페인":5256,"▁문제에":5257,"바다":5258,"▁의원의":5259,"치의":5260,"▁추모":5261,"스카":5262,"▁유가":5263,"산시":5264,"▁말까지":5265,"▁대통령과":5266,"▁사람을":5267,"▁편집":5268,"협약":5269,"▁1%":5270,"정규직":5271,"▁고려해":5272,"▁의혹을":5273,"▁제공할":5274,"▁돌입":5275,"천만원":5276,"▁최소화":5277,"수에":5278,"▁공동으로":5279,"▁맹":5280,"▁모색":5281,"▁맞추":5282,"경남":5283,"▁기자가":5284,"▁맞이":5285,"▁길을":5286,"챔피언":5287,"▁지역을":5288,"▁보관":5289,"▁절감":5290,"▁기대한다":5291,"달라":5292,"▁수많은":5293,"▁내다봤다":5294,"주주":5295,"▁합리":5296,"▁열렸다":5297,"원순":5298,"▁나설":5299,"▁업데이트":5300,"하면서도":5301,"시로":5302,"▁김기":5303,"▁평가했다":5304,"▁향해":5305,"▁절차":5306,"▁고속도로":5307,"▁제휴":5308,"▁집계됐다":5309,"▁넘게":5310,"▁사드":5311,"▁문자":5312,"대화":5313,"▁싶다":5314,"▁원내대표는":5315,"▁진행된":5316,"물은":5317,"▁올랐":5318,"▁인민":5319,"전한":5320,"▁후반":5321,"▁유형":5322,"▁47":5323,"▁CC":5324,"▁상승했다":5325,"▁파괴":5326,"▁창립":5327,"▁수능":5328,"머니마켓":5329,"▁곳에":5330,"블릿":5331,"▁일상":5332,"8)":5333,"국회":5334,"▁삼성전자는":5335,"▁전원":5336,"확실":5337,"▁이르는":5338,"▁전재":5339,"▁경쟁력을":5340,"▁시위":5341,"▁누적":5342,"식의":5343,"▁접속":5344,"▁뒤를":5345,"▁변화를":5346,"▁김용":5347,"▁이상을":5348,"Good":5349,"석을":5350,"▁조달":5351,"▁무게":5352,"▁과도":5353,"물질":5354,"▁대처":5355,"▁썼":5356,"▁제조업":5357,"▁후속":5358,"감사":5359,"까요":5360,"▁Co":5361,"경북":5362,"해주":5363,"▁Z":5364,"▁붕괴":5365,"▁예를":5366,"▁급락":5367,".201":5368,"임금":5369,"용품":5370,"▁상당히":5371,"9000":5372,"사건":5373,"▁폐쇄":5374,"97":5375,"▁내렸다":5376,"공정":5377,"▁길이":5378,"▁침해":5379,"▁본격적으로":5380,"8000":5381,"▁법적":5382,"▁정부와":5383,"go":5384,"▁사이버":5385,"▁나왔":5386,"▁분위기":5387,"대교":5388,"신한":5389,"경찰청":5390,"▁무려":5391,"▁매도":5392,"▁무선":5393,"명에게":5394,"책을":5395,"점검":5396,"!![":5397,"나이":5398,"▁주어":5399,"▁신입":5400,"해운":5401,"천여":5402,"▁서부":5403,"중학교":5404,"위에서":5405,"~2":5406,"▁중심의":5407,"▁낭":5408,"시장에":5409,"▁승강":5410,"▁\"\"(":5411,"▁인턴":5412,"라크":5413,"94":5414,"▁부담을":5415,"▁포토":5416,"▁수집":5417,"▁최대한":5418,"아요":5419,"▁흔들":5420,"▁털":5421,"▁소식":5422,"▁영향으로":5423,"600":5424,"▁원인":5425,"▁문제로":5426,"MA":5427,"▁글을":5428,"▁발달":5429,"대우":5430,"적의":5431,"실은":5432,"▁쓰는":5433,"▁휴대전":5434,"줬다":5435,"▁참고":5436,"▁전월":5437,"▁사고가":5438,"상과":5439,"장기":5440,"kim":5441,"▁칭":5442,"▁발생하는":5443,"▁노선":5444,"▁그리":5445,"▁제품은":5446,"각을":5447,"복합":5448,"ult":5449,"▁상승한":5450,"▁캡":5451,"▁갑자기":5452,"해주는":5453,"▁가맹":5454,"▁곳은":5455,"▁우리의":5456,"창업":5457,"▁침몰":5458,"호가":5459,"▁줄었다":5460,"▁잡아":5461,"▁현재의":5462,"유통":5463,"▁만들고":5464,"Comment":5465,"SD":5466,"▁수사를":5467,"▁화려":5468,"지며":5469,"능력":5470,"그래":5471,"▁깊은":5472,"');":5473,"도서관":5474,"와는":5475,"▁좁":5476,"습니까":5477,"지인":5478,"32":5479,"관의":5480,"▁붙잡":5481,"▁AP":5482,"▁★":5483,"났습니다":5484,"▁개장":5485,"▁신흥":5486,"88":5487,"▁원장은":5488,"▁년":5489,"▁장관이":5490,"뱅크":5491,"업무":5492,"▁보완":5493,"스턴":5494,"▁지금은":5495,"으므로":5496,"▁보건복지":5497,".11":5498,"▁간단":5499,"조트":5500,"겨레":5501,"▁활성":5502,"▁들어서":5503,"▁바꾸는":5504,"▁공포":5505,"▁입법":5506,"▁PL":5507,"▁초등":5508,"사람":5509,"▁강하게":5510,"▁동료":5511,"\"\")":5512,"크라":5513,"▁상하이":5514,"프레":5515,"요금":5516,"재산":5517,"▁방어":5518,"었는데":5519,"중소":5520,"▁보도를":5521,"Count":5522,"▁음성":5523,"▁데이":5524,"▁84":5525,"▁주가가":5526,"▁연락":5527,"▁자극":5528,"▁퇴직":5529,"▁사법":5530,"노총":5531,"▁애니메이션":5532,"▁창의":5533,"▁곽":5534,"▁세부":5535,"▁소폭":5536,"▁만들었다":5537,"유로":5538,"▁훔":5539,"연히":5540,"▁만약":5541,"▁혼란":5542,"▁근본":5543,"정당":5544,"jindo":5545,"함이":5546,"▁실업":5547,"▁계산":5548,"패드":5549,"(\"":5550,"▁성격":5551,"▁뚜":5552,"▁보증":5553,"7)":5554,"경찰서는":5555,"미를":5556,"▁null":5557,"▁경찰이":5558,"64":5559,"▁워크":5560,"?”":5561,"▁대만":5562,"▁추구":5563,"▁방법을":5564,"▁디스플레이":5565,"전환":5566,"vi":5567,"그룹은":5568,"관에":5569,"▁AI":5570,"▁결과가":5571,"▁세계적인":5572,"▁즉각":5573,"▁측정":5574,"▁렌":5575,"▁매출이":5576,"▁농촌":5577,"▁훼손":5578,"▁산림":5579,"▁것이란":5580,"▁샌":5581,"▁42":5582,"GoodNews":5583,"▁유력":5584,"▁완공":5585,"▁무슨":5586,"가포르":5587,"▁중화":5588,"다시":5589,"마저":5590,"처를":5591,"▁배당":5592,"여야":5593,"▁일시":5594,"▁강남구":5595,"해졌다":5596,"▁상황에":5597,"▁자회사":5598,"▁부탁":5599,"난다":5600,"▁화물":5601,"▁IP":5602,"▁발인":5603,"음이":5604,"▁민주통합":5605,"5)":5606,"화보":5607,"밀리":5608,"팀장":5609,"▁놓치면":5610,"▁바꿔":5611,"▁안드로이드":5612,"▁아베":5613,"▁프레":5614,"ark":5615,"▁비교적":5616,"▁숨진":5617,"▁질문":5618,"▁기획재정부":5619,"▁인용":5620,"▁포르":5621,"▁어플리케이션":5622,"선수":5623,"▁마쳤다":5624,"▁가능성도":5625,"▁서버":5626,"herald":5627,"시장이":5628,"▁올렸다":5629,"재정":5630,"▁스페":5631,"▁편리":5632,"▁제가":5633,"▁자체가":5634,"The":5635,"인당":5636,"▁점포":5637,"▁접근할":5638,"여개":5639,"소속":5640,"▁하겠다":5641,"▁노후":5642,"▁59":5643,"진보":5644,"▁입고":5645,"▁펜":5646,"인치":5647,"단과":5648,"머스":5649,"▁수익을":5650,"러리":5651,"▁위원장":5652,"▁1980":5653,"서로":5654,"▁고정":5655,"▁진료":5656,"▁경우도":5657,"▁가득":5658,"▁불가피":5659,"▁미국과":5660,"▁오피스텔":5661,"▁재판부는":5662,"▁하락했다":5663,"▁벤처":5664,"▁상한":5665,"▁애플리케이션":5666,"▁만날":5667,"▁수색":5668,"ES":5669,"공무원":5670,"▁즐거운":5671,"플러":5672,"ha":5673,"학자":5674,"신도시":5675,"▁금감":5676,"▁두산":5677,"▁훈":5678,"▁일환":5679,"▁조절":5680,"▁눈이":5681,"▁정도의":5682,"▁일반적으로":5683,"형이":5684,"▁사람들은":5685,"▁금호":5686,"대강":5687,"동이":5688,"▁보낸":5689,"▁융합":5690,"▁김진":5691,"▁사기":5692,"음에도":5693,"▁발효":5694,"▁대거":5695,"▁차세대":5696,"▁신제품":5697,"▁김모":5698,"▁1995":5699,"▁거래를":5700,"info":5701,"▁사진은":5702,"▁촉구했다":5703,"▁안타":5704,"▁명확":5705,"▁분쟁":5706,"전시":5707,"▁말고":5708,"조의":5709,"린이":5710,"쪽에":5711,"▁품목":5712,"처분":5713,"▁지표":5714,"호로":5715,"메달":5716,"▁여부":5717,"▁수급":5718,"▁이스":5719,"▁입건":5720,"▁라고":5721,"▁쟁":5722,"▁장면":5723,"▁마치":5724,"덜란드":5725,"▁세상을":5726,"▁개봉":5727,"▁박사":5728,"▁의미를":5729,"▁남녀":5730,"▁라디오":5731,"▁해당하는":5732,"▁벌이고":5733,"▁항상":5734,"▁추진하고":5735,"▁계열사":5736,"국인":5737,"▁paper":5738,"▁쾌":5739,"▁공산":5740,"위원회를":5741,"▁관련기사":5742,"▁분야의":5743,"6)":5744,"▁만기":5745,"수준":5746,"▁54":5747,"▁북부":5748,"▁참석했다":5749,"how":5750,"▁만한":5751,"▁법안":5752,"액의":5753,"박물관":5754,"▁SMS":5755,"▁상당의":5756,"라엘":5757,"▁EU":5758,"카데":5759,"▁강연":5760,"▁절차를":5761,"▁제주도":5762,"▁워싱턴":5763,"▁입은":5764,"억원이":5765,"▁생긴":5766,"▁멕시코":5767,"▁낼":5768,"▁똑":5769,"사태":5770,"스트는":5771,"▁성인":5772,"커스":5773,"▁올린":5774,"▁경매":5775,"▁광화문":5776,"▁불확실":5777,":00":5778,"▁사업은":5779,"▁5%":5780,"▁널리":5781,"▁스테":5782,"농협":5783,"▁전공":5784,"▁저소득":5785,"▁내수":5786,"▁어린이집":5787,"인증":5788,"▁무엇보다":5789,"▁사용한":5790,"진은":5791,"▁실시한":5792,"▁있다면":5793,"▁담긴":5794,"소와":5795,"간담":5796,"은행이":5797,"▁허위":5798,"라의":5799,"내일":5800,"▁차지하는":5801,"▁현재는":5802,"▁작곡":5803,"사용":5804,"▁발급":5805,"▁기후":5806,"▁파업":5807,"▁김상":5808,"배를":5809,"▁심의":5810,"류가":5811,"▁피해자":5812,"▁겪고":5813,"▁궁금":5814,"▁차기":5815,"▁사이에서":5816,"▁대외":5817,"▁직전":5818,"▁끈":5819,"▁반등":5820,"▁의지를":5821,"▁1999":5822,"▁수수료":5823,"TX":5824,"마스":5825,"▁주한":5826,"aily":5827,"▁쏘":5828,"▁감소했다":5829,"▁추첨":5830,"▁경제적":5831,"▁관할":5832,"시안":5833,"▁들었다":5834,"고용":5835,"▁줄어든":5836,"▁경험을":5837,"▁묶":5838,"▁나타냈다":5839,"공헌":5840,"▁대표의":5841,"▁의장":5842,"▁아웃":5843,"▁동참":5844,"du":5845,"▁토대로":5846,"▁후보를":5847,"▁노사":5848,"▁회계":5849,"▁성장을":5850,"▁쏠":5851,"하려면":5852,"6000":5853,"▁이슬람":5854,"▁세미나":5855,"부채":5856,"▁고령":5857,"Json":5858,"▁규모는":5859,"▁요리":5860,"▁고교":5861,"로스":5862,"기아":5863,"사령":5864,"▁방향으로":5865,"▁국방부":5866,"700":5867,"▁수업":5868,"▁유승":5869,"▁씨의":5870,"▁연령":5871,".)":5872,"4000":5873,"▁냈다":5874,"▁체육":5875,"▁멈":5876,"▁},":5877,"▁착용":5878,"▁이름으로":5879,"▁한진":5880,"▁평창":5881,"순환":5882,"▁진정":5883,"▁불구속":5884,"▁수준을":5885,"▁위로":5886,"▁성적":5887,"드의":5888,"▁했고":5889,"▁마감했다":5890,"▁매주":5891,"부터는":5892,"93":5893,"▁금융감독":5894,"▁짜":5895,"▁생각을":5896,"공급":5897,"▁출근":5898,"▁고소":5899,"헤럴드경제":5900,"닉스":5901,"이라면서":5902,"▁대표이사":5903,"지난해":5904,"기업의":5905,"9)":5906,"24.":5907,"tomain":5908,"리티":5909,"▁60%":5910,"드가":5911,"설명":5912,"▁포럼":5913,"▁연금":5914,"증권은":5915,"▁앙":5916,"▁포착":5917,"\"\"(":5918,"▁정상회담":5919,"져야":5920,"▁후보의":5921,"▁결정을":5922,"놓고":5923,"▁후보자":5924,"▁요구했다":5925,"▁찬성":5926,"▁43":5927,"▁방영":5928,"회와":5929,"▁리스크":5930,"▁지원한다":5931,"▁맡고":5932,"▁l":5933,"▁확충":5934,"▁클라우드":5935,"▁총장":5936,"층에":5937,"▁분기":5938,"▁축하":5939,"▁NEWS":5940,"▁photo":5941,"든지":5942,"▁고성":5943,"-0":5944,"▁복잡":5945,"▁재난":5946,"일랜드":5947,"▁진화":5948,"▁챔피언":5949,"회관":5950,"제와":5951,"TO":5952,"방향":5953,"▁유저":5954,"ytn":5955,"▁이민":5956,"▁발생할":5957,"▁물류":5958,"시한":5959,"▁수준이다":5960,"▁목록":5961,"▁전후":5962,"▁모습이":5963,"연맹":5964,"▁게임을":5965,"▁행위":5966,"체육관광":5967,"▁급격":5968,"▁스크":5969,"▁공개했다":5970,"▁자사":5971,"앞으로":5972,"▁80%":5973,"복을":5974,"▁FC":5975,"▁봤":5976,"하다가":5977,"▁세금":5978,"▁오염":5979,"▁직장":5980,"▁눈을":5981,"]-":5982,"▁이것은":5983,"▁자신을":5984,"▁단말":5985,"CD":5986,"바이오":5987,"\"\").":5988,"▁PLUS":5989,"▁조지":5990,"▁시술":5991,"의자":5992,"▁멸":5993,"메이":5994,"▁고속":5995,"▁오토":5996,"촛불":5997,"학습":5998,"전으로":5999,"▁한때":6000,"법원":6001,"시청":6002,".25":6003,"트가":6004,"▁청구할":6005,"▁부대":6006,"▁조례":6007,"▁75":6008,"▁김해":6009,"명이다":6010,"광고":6011,"인에게":6012,"▁수영":6013,"1000":6014,"야구":6015,"?'":6016,"▁기회가":6017,"▁평양":6018,"▁높이는":6019,"▁근처":6020,"▁문화재":6021,"▁국산":6022,"▁사건이":6023,"▁묵":6024,"cont":6025,"▁는":6026,"▁진행되는":6027,"▁예산을":6028,"▁중에서":6029,"▁한경":6030,"어의":6031,"▁어려워":6032,"▁(0":6033,"▁영하":6034,"ter":6035,"▁목적":6036,"수수색":6037,"업종":6038,"디자인":6039,"▁64":6040,"▁참여해":6041,"▁모임":6042,"7000":6043,"감한":6044,"아버":6045,"▁즉시":6046,"자치단체":6047,"계에":6048,"▁권리가":6049,"세점":6050,"원들이":6051,"▁완벽":6052,"▁발전을":6053,"진의":6054,"통화":6055,"▁보존":6056,"▁세상에":6057,"▁다운로드":6058,"하려고":6059,"▁마치고":6060,"▁교육감":6061,"▁스타일":6062,"협정":6063,"▁김무성":6064,"▁LED":6065,"▁모으":6066,"였으며":6067,"▁있어야":6068,"참여":6069,"▁비서":6070,"너스":6071,"▁Δ":6072,"▁1998":6073,"역이":6074,"▁섭취":6075,"▁때마다":6076,"▁당기":6077,"▁태블릿":6078,"개월간":6079,"▁안정적인":6080,"타워":6081,"jo":6082,"▁둘러싼":6083,"▁서울시는":6084,"저축은행":6085,"▁세포":6086,"▁요구하는":6087,"▁배제":6088,"▁and":6089,"인상":6090,"에셋":6091,"▁직장인":6092,"포구":6093,"▁답했다":6094,"▁콘서트":6095,"▁참여할":6096,"리게":6097,"역에":6098,"신용":6099,"▁당장":6100,"▁작품을":6101,"▁실적을":6102,"▁전날보다":6103,"▁본격화":6104,"▁토지":6105,"▁위하여":6106,"1(":6107,"본부는":6108,"▁있으면":6109,"즈를":6110,"▁시민들이":6111,"그러":6112,"▁이용하는":6113,"▁임상":6114,"▁대체로":6115,"▁메모":6116,"질의":6117,"▁52":6118,"▁펴":6119,"▁윌":6120,"체는":6121,"안정":6122,"▁십":6123,"되기도":6124,"증이":6125,"관과":6126,"▁지역은":6127,"다운로드":6128,"은행의":6129,"차량":6130,"▁피해가":6131,"▁순매":6132,"▁야권":6133,"▁이집":6134,"실로":6135,"▁연구개발":6136,"▁56":6137,"▁기자입니다":6138,"▁회의를":6139,"▁동작":6140,"채권":6141,"▁막기":6142,"▁중학교":6143,"▁상생":6144,"▁귀국":6145,"신고":6146,"▁대책을":6147,"경향":6148,"퍼런":6149,"▁나이":6150,"▁열차":6151,"조가":6152,"▁당일":6153,"▁박영":6154,"인력":6155,"ype":6156,"▁공무":6157,"▁대한항공":6158,"▁건의":6159,"▁영국의":6160,"치게":6161,"월말":6162,"▁그들의":6163,"▁따로":6164,"▁반론":6165,"군과":6166,"체에":6167,"▁신분":6168,"▁리포트":6169,"▁소련":6170,"▁일각":6171,"▁멘":6172,"▁재직":6173,"▁주행":6174,"센터는":6175,"▁친박":6176,"▁2020":6177,"전기":6178,"▁힘입":6179,"▁부부":6180,"▁미치는":6181,"▁며":6182,"▁외교부":6183,"정지":6184,"▁네덜란드":6185,"연한":6186,"▁개인정보":6187,"여명의":6188,"▁숫":6189,"나요":6190,"▁이자":6191,"▁지출":6192,"(200":6193,"▁커지고":6194,"TBC":6195,"▁41":6196,"끄는":6197,"▁갖추고":6198,"▁잡고":6199,"▁싱가포르":6200,"▁학술":6201,"▁쇼핑몰":6202,"▁잠시":6203,"청이":6204,"▁49":6205,"DB":6206,"▁발생했다":6207,"▁증권정보":6208,"▁덮":6209,"▁빙":6210,"▁수록":6211,"▁깔":6212,"▁is":6213,"▁잊":6214,"▁캘":6215,"▁점도":6216,"▁목소리를":6217,"▁해안":6218,"▁화성":6219,"▁미만":6220,"▁해명":6221,"카데미":6222,"▁항의":6223,"▁인터뷰에서":6224,"르지":6225,"▁압수수색":6226,"▁생방송과":6227,"증시":6228,"주일":6229,"▁느껴":6230,"▁사우":6231,"▁뉴스속보를":6232,"▁콩":6233,"치에":6234,"▁정지":6235,"▁긴급속보를":6236,"리스트":6237,"▁진행할":6238,"▁엄청":6239,"메리카":6240,"▁납품":6241,"PS":6242,"됨에":6243,"▁거짓":6244,"▁편입":6245,"▁정규":6246,"ayer":6247,"▁의미가":6248,"▁국내에서":6249,"정부가":6250,"▁선정된":6251,"▁검찰에":6252,"▁1997":6253,"석이":6254,"전력":6255,"▁가속":6256,"▁발휘":6257,"▁개성공단":6258,"년과":6259,"▁유발":6260,"▁치러":6261,"▁탑승":6262,"ial":6263,"학적":6264,"시장은":6265,"▁채무":6266,"만원에":6267,"▁중고":6268,"▁높게":6269,"lay":6270,"▁일어난":6271,"▁800":6272,"▁한층":6273,"▁혼자":6274,"┼────":6275,"▁수백":6276,"▁느낄":6277,"▁전략을":6278,"▁부각":6279,"▁환영":6280,"▁택시":6281,"▁교수가":6282,"름이":6283,"▁대로":6284,"!]":6285,"▁에이":6286,"▁부회장":6287,"▁점점":6288,"▁미국에서":6289,"단으로":6290,"▁이성":6291,"지표":6292,"▁지수":6293,"▁확인됐다":6294,"▁사람들":6295,"▁장을":6296,"▁on":6297,"▁쇠":6298,"디지털":6299,"▁전망된다":6300,"▁이마트":6301,"먼지":6302,"▁벌금":6303,"▁갤":6304,"▁능력을":6305,"·4":6306,"▁평택":6307,"당에":6308,"▁인사를":6309,"레이션":6310,"▁장례":6311,"▁선보였다":6312,"▁지방선거":6313,"▁배포":6314,"청소년":6315,"리포":6316,"▁마련했다":6317,"ont":6318,"87":6319,"▁끝난":6320,"▁최근에는":6321,"▁그녀는":6322,"▁힘든":6323,"국과":6324,"다이":6325,"▁아니냐는":6326,"▁면접":6327,"▁게이":6328,"▁지적이":6329,"님의":6330,"▁범행":6331,"▁출산":6332,"센터를":6333,"▁보여주는":6334,"(15":6335,"▁부근":6336,"▁부당":6337,"미사일":6338,"end":6339,"▁바른":6340,"▁오리":6341,"주간":6342,"▁유일한":6343,"▁전무":6344,"▁부담이":6345,"▁700":6346,"▁나선다":6347,"gor":6348,"▁얻고":6349,"▁윈도":6350,"▁재건축":6351,"▁보인":6352,"▁맞은":6353,"됐지만":6354,"▁공연을":6355,"▁형태의":6356,"▁활성화를":6357,"▁해제":6358,"▁여론조사":6359,"▁몰려":6360,"▁마찬가지로":6361,"결을":6362,"▁다문화":6363,"판에":6364,"▁에스":6365,"▁밴드":6366,"content":6367,"▁관람객":6368,"힌다":6369,"▁한국인":6370,"▁미란다":6371,"up":6372,"톨릭":6373,"▁소식을":6374,"▁공개된":6375,"▁방문한":6376,"▁컨설팅":6377,"▁얻을":6378,"--------":6379,"유를":6380,"호텔에서":6381,"물산":6382,"▁김경":6383,"통일":6384,"로가":6385,"▁자문":6386,"ae":6387,"▁잠재":6388,"▁국가대표":6389,"66":6390,"리자":6391,"▁한달":6392,"▁양산":6393,"▁더해":6394,"?\"":6395,"▁됩니다":6396,"alue":6397,"▁풍부한":6398,"▁영입":6399,"▁삶의":6400,"수한":6401,"▁지수는":6402,"Layer":6403,"▁결승":6404,"▁한일":6405,"▁덴":6406,"▁누가":6407,"▁소요":6408,"기반":6409,"▁보육":6410,"▁기대하고":6411,"법으로":6412,"▁국정원":6413,"야마":6414,"ne":6415,"토론":6416,"▁명령":6417,"▁설문":6418,"▁말레이":6419,"▁그려":6420,"▁방법으로":6421,"▁고향":6422,"선물":6423,"▁국민연금":6424,"▁겨냥":6425,"▁칸":6426,"식과":6427,"▁이스라엘":6428,"▁들어간":6429,"말을":6430,"충격":6431,"▁매달":6432,"▁결과에":6433,"▁서명":6434,"▁목포":6435,"점과":6436,"▁인기기사":6437,"▁수리":6438,"▁컸":6439,"▁인생":6440,"▁최순실":6441,"▁제시했다":6442,"age":6443,"▁누리꾼":6444,"urr":6445,"▁사이의":6446,"▁뉴스를":6447,"네이버":6448,"오고":6449,"▁투명":6450,"▁통해서":6451,"▁당사":6452,"▁하자":6453,"가락":6454,"▁85":6455,"▁동북":6456,"▁있었지만":6457,"청문":6458,"▁日":6459,"▁입증":6460,"심이":6461,"▁힘입어":6462,"▁IB":6463,"▁비교해":6464,"▁대표와":6465,"▁전형":6466,"시각":6467,"Name":6468,"▁보일":6469,"놀이":6470,"폭력":6471,"비로":6472,"Class":6473,"▁풀어":6474,"유지":6475,"▁적지":6476,"▁이혼":6477,"▁부작용":6478,"트라":6479,"▁지지를":6480,"▁핵실험":6481,"구로":6482,"FC":6483,"▁보이지":6484,"고도":6485,"▁연다":6486,"새누리당":6487,"▁위축":6488,"친다":6489,"천시":6490,"▁이영":6491,"?[":6492,"▁주간":6493,"▁무너":6494,"▁국토교통":6495,"▁250":6496,"▁간부":6497,"유산":6498,"▁부분이":6499,"▁만남":6500,"▁먹는":6501,"도어":6502,"▁이모":6503,"▁있는지":6504,"▁명절":6505,"res":6506,"▁예금":6507,"▁나섰":6508,"▁부족한":6509,"▁저축은행":6510,"▁뉴스의":6511,"AN":6512,"층을":6513,"▁합류":6514,"▁실적이":6515,"Te":6516,"▁사업이":6517,"부에서":6518,"▁페스티벌":6519,"▁스웨":6520,"(\"\".":6521,"▁0.0":6522,"▁없습니다":6523,"91":6524,"▁영업이익은":6525,"▁고등":6526,"료로":6527,"▁지원할":6528,"▁순매수":6529,"위원장은":6530,"전과":6531,"▁무산":6532,"브랜드":6533,"▁개발을":6534,"케어":6535,"▁훌":6536,"체로":6537,"온라인":6538,"아의":6539,"시장을":6540,"▁분위기를":6541,"ization":6542,"▁한해":6543,"▁설득":6544,"▁폐기":6545,"▁계기가":6546,"서나":6547,"서와":6548,"-2":6549,"Index":6550,"▁권리와":6551,"▁무장":6552,"▁「":6553,"▁상환":6554,"▁이어지고":6555,"▁못할":6556,"▁이사회":6557,"▁저렴한":6558,"▁운항":6559,"▁수혜":6560,"퍼스":6561,"▁철강":6562,"▁종사":6563,"수지":6564,"▁살고":6565,"▁셰":6566,"니는":6567,"▁이지":6568,"하였으나":6569,"▁김포":6570,"▁가격을":6571,"▁노무현":6572,"ly":6573,"▁게재":6574,"▁부드":6575,"▁경우는":6576,"▁떨어졌다":6577,"▁당기순":6578,"깜짝":6579,"▁본회의":6580,"▁상당한":6581,"▁감소한":6582,"▁풀이된다":6583,"동기":6584,"▁사회공헌":6585,"뷰티":6586,"▁맡은":6587,"일반":6588,"▁시에":6589,"었을":6590,"▁넷":6591,"Re":6592,"고는":6593,"▁구조조정":6594,"하라고":6595,"ategor":6596,"▁남해":6597,"여서":6598,"청에":6599,"▁결정했다":6600,"▁비정규직":6601,"▁담아":6602,"▁노트":6603,"▁유족":6604,"▁뒤에":6605,"MF":6606,"▁감시":6607,"▁전경":6608,"대사":6609,"최고":6610,"▁대사":6611,"▁맡았다":6612,"타민":6613,"시설을":6614,"협의":6615,"▁마이크로":6616,"▁내는":6617,"강원":6618,"▁소외":6619,"▁헝":6620,"위와":6621,"▁그때":6622,"di":6623,"▁올리":6624,"▁이동통신":6625,"▁텔레":6626,"▁저는":6627,"로로":6628,"새로운":6629,"위원장이":6630,"▁다이어트":6631,"▁격려":6632,"▁전파":6633,"”▶":6634,"전남":6635,"▁기재":6636,"▁정무":6637,"▁스피":6638,"▁어울":6639,"▁다수":6640,"▁다루":6641,"위원회의":6642,"▁처분":6643,"OT":6644,"▁?":6645,"▁동생":6646,"신은":6647,"▁화보":6648,"▁당분간":6649,"▁최우수":6650,"부처":6651,"▁쓰고":6652,"▁물을":6653,"▁대하여":6654,"▁앞장":6655,"인터뷰":6656,"인들은":6657,"▁함께하는":6658,"▁()":6659,"▁베스트":6660,"▁착공":6661,"거래소":6662,"▁다섯":6663,"▁응원":6664,"the":6665,"▁징계":6666,"]◆":6667,"가정":6668,"추행":6669,"▁불이":6670,"▁머리":6671,"▁상태에서":6672,"▁전담":6673,"▁태국":6674,"▁활용할":6675,"자도":6676,"정정":6677,"▁가공":6678,"▁케이블":6679,"조에":6680,"▁짧은":6681,"추후":6682,"▁여성의":6683,"▁협력을":6684,"▁의존":6685,"▁동시":6686,"▁추진할":6687,"전국":6688,"▁발간":6689,"▁건너":6690,"▁텐":6691,"▁CCTV":6692,"지점":6693,"▁사용해":6694,"▁영등":6695,"수출":6696,"▁생각이":6697,"▁의뢰":6698,"▁실시한다":6699,"▁의사를":6700,"▁책을":6701,"▁금액":6702,"▁설치된":6703,"▁로스":6704,"권과":6705,"회계":6706,"▁부분을":6707,"▁좋지":6708,"췄다":6709,"선언":6710,"들로부터":6711,"선으로":6712,"▁몬":6713,"▁el":6714,"▁유해":6715,"외교":6716,"▁달아":6717,"▁소화":6718,"학회":6719,"▁가시":6720,"▁회사는":6721,"로도":6722,"▁이미지를":6723,"▁별세":6724,"▁독특":6725,"▁해킹":6726,"▁콘텐츠를":6727,"았습니다":6728,"장치":6729,"▁중순":6730,"발을":6731,"보안":6732,"ml":6733,"▁발언을":6734,"▁인지":6735,"urrent":6736,"씨에게":6737,"급식":6738,"▁부르":6739,"실적":6740,"xt":6741,"됐다는":6742,"물에":6743,"▁도서관":6744,"▁매출은":6745,"네트워크":6746,"400":6747,"▁평생":6748,"▁간편":6749,"▁프랑":6750,"데요":6751,"라운":6752,"▁상관":6753,"▁태양광":6754,"주와":6755,"님이":6756,"▁야외":6757,"에스":6758,"위안":6759,"▁고대":6760,"▁조사한":6761,"▁갖춰":6762,"▁입력":6763,"▁개최한다":6764,"▁디자이너":6765,"▁시중":6766,"▁운세":6767,"▁별도의":6768,"▁교회":6769,"프라인":6770,"세월호":6771,"▁제도를":6772,"▁여겨":6773,"====":6774,"▁높였다":6775,"하우스":6776,"▁동맹":6777,"▁비용을":6778,"정원":6779,"팀이":6780,"▁위안부":6781,"▁김씨는":6782,"function":6783,"▁자유로이":6784,"▁북미":6785,"▁새해":6786,"▁대표하는":6787,"▁긴장":6788,"정으로":6789,"재가":6790,"▁증권사":6791,"평화":6792,"cted":6793,"▁마시":6794,"엑스포":6795,"종이":6796,"▁아나":6797,"▁하향":6798,"▁한마":6799,"▁반박":6800,"셔널":6801,"정보를":6802,"▁개발에":6803,"오른쪽":6804,"패션":6805,"▁엇":6806,"▁의견이":6807,"내기":6808,"▁180":6809,"AS":6810,"▁꼼":6811,"▁닫":6812,"공사는":6813,"▁가상":6814,"▁사후":6815,"▁붉":6816,"이용":6817,"▁박원순":6818,"관계를":6819,"▁사회복지":6820,"겠고":6821,"▁소리":6822,"hank":6823,"디스플레이":6824,"원이다":6825,"▁캠페":6826,"결제":6827,"....":6828,"▁JTBC":6829,"▁영토":6830,"▁비율":6831,"▁기아차":6832,"▁높여":6833,"▁속하는":6834,"▁짐":6835,")=":6836,"▁시급":6837,"▁구속영":6838,"▁데다":6839,"▁적립":6840,"▁멋":6841,"▁테이":6842,"▁사랑을":6843,"▁권고":6844,"▁론":6845,"▁촛불":6846,"공화국":6847,"▁무소속":6848,"▁】":6849,"청장":6850,"▁튀":6851,"▁연봉":6852,"즈는":6853,"▁부활":6854,"▁변화가":6855,"▁영상을":6856,"재로":6857,"▁민주통합당":6858,"▁처음이다":6859,"료가":6860,"서비스를":6861,"캠프":6862,"년째":6863,"▁공기":6864,"▁몰아":6865,"안과":6866,"▁굉":6867,"▁방식을":6868,"▁분당":6869,"▁공통":6870,"경찰서":6871,"하시":6872,"ow":6873,"▁검찰이":6874,"용으로":6875,"양을":6876,"▁달한다":6877,"▁응급":6878,"역사":6879,"section":6880,"bs":6881,"▁집권":6882,"▁생생":6883,"”\"":6884,"▁기름":6885,"▁1970":6886,"▁진상":6887,"▁따뜻한":6888,"▁투쟁":6889,"▁발견된":6890,"▁높이고":6891,"지니어":6892,"▁신형":6893,"원한":6894,"▁[[":6895,"심히":6896,"▁진행됐다":6897,"▁포털":6898,"전자는":6899,"▁동일한":6900,"▁엠":6901,"▁생활을":6902,"▁진행하는":6903,"▁와이":6904,"▁저항":6905,"▁선포":6906,"▁3,":6907,"장애인":6908,"▁자금을":6909,"▁독자에게는":6910,"합의":6911,"▁없애":6912,"경은":6913,"튜브":6914,"▁농림":6915,"▁키워":6916,"소리":6917,"▁목숨":6918,"▁군은":6919,"아웃":6920,"▁인접":6921,"▁취급":6922,"었다고":6923,"▁사고로":6924,"▁맡아":6925,"▁!":6926,"▁취재원과":6927,"▁기업들이":6928,"바른":6929,"▁이유가":6930,"▁민원":6931,"농업":6932,"▁소송을":6933,"▁민주주의":6934,"말로":6935,"▁투자의견":6936,"▁대화를":6937,"잡고":6938,"▁중국이":6939,"사장":6940,"가치":6941,"▁협조":6942,"부담":6943,"부대":6944,"▁했는데":6945,"▁사용자":6946,"▁원의":6947,"▁이전에":6948,"재생":6949,"상에서":6950,"▁남쪽":6951,"LED":6952,"▁보고서":6953,"▁한글":6954,"TS":6955,"▁본부":6956,"▁고객이":6957,"▁여기서":6958,"▁경비":6959,"view":6960,"▁있었고":6961,"▁일환으로":6962,"▁흡수":6963,"▁회사의":6964,"▁일은":6965,"\"\";":6966,"관으로":6967,"▁국무총리":6968,"▁물질":6969,"성한":6970,"▁이름은":6971,"▁순으로":6972,"▁문화를":6973,"▁FI":6974,"▁단행":6975,"준표":6976,"분쯤":6977,"▁이데일리":6978,"▁차이":6979,"▁늘어날":6980,"창원":6981,"▁대통령을":6982,"▁허가":6983,"금속":6984,"▁해수":6985,"▁밟":6986,"▁중도":6987,"페라":6988,"!\"\"":6989,"this":6990,"그룹의":6991,"▁지명":6992,"▁분노":6993,"▁부지":6994,"List":6995,"▁팽":6996,"▁먹고":6997,"▁57":6998,"법상":6999,"48":7000,"레인":7001,"▁All":7002,"▁중소형":7003,"▁발의":7004,"ey":7005,"▁만들어진":7006,"▁재배포금지":7007,"▁입을":7008,"▁사람들의":7009,"▁도는":7010,"파로":7011,"점의":7012,"연합회":7013,"▁참가한":7014,"▁돋":7015,"▁흘러":7016,"▁별도로":7017,"▁거두":7018,"sh":7019,"드리":7020,"▁있음을":7021,"상환":7022,"▁이듬":7023,"▁철거":7024,"교육을":7025,"▁촉진":7026,"▁후쿠":7027,"민족":7028,"▁51":7029,"▁불교":7030,"▁신호":7031,"▁정밀":7032,"TI":7033,"▁BMW":7034,"▁예상했다":7035,"내가":7036,"▁이은":7037,"▁무죄":7038,"경이":7039,"한겨레":7040,"▁상용":7041,"▁기온이":7042,"▁유로존":7043,"어린이":7044,"브리드":7045,"대학원":7046,"콘텐츠":7047,"▁기준을":7048,"▁다르다":7049,"(9":7050,"보장":7051,"천군":7052,"차이즈":7053,"▁애널리":7054,"형의":7055,"조는":7056,"▁살인":7057,"▁들어갔다":7058,"▁전격":7059,"▁딜":7060,"▁소장":7061,"국으로":7062,"▁대표이":7063,"아동":7064,"전용":7065,"▁프로모":7066,"▁멀티":7067,"▁가이드":7068,"편의":7069,"▁웅":7070,"▁딱":7071,"▁내외":7072,"▁마리":7073,"▁예정인":7074,"▁금강":7075,"▁늘려":7076,"▁북한은":7077,"▁당내":7078,"▁적용해":7079,"▁역량을":7080,"▁매출액은":7081,"▁미래를":7082,"▁세종시":7083,"EU":7084,"▁법원":7085,"▁정부에":7086,"승을":7087,"▁스웨덴":7088,"홀딩":7089,"▁조각":7090,"ity":7091,"대응":7092,"▁송파":7093,"▁이산":7094,"희망":7095,"▁긍정적인":7096,"▁호응":7097,"AR":7098,"▁신용카드":7099,"▁파워":7100,"▁2%":7101,"우주":7102,"에이":7103,"▁서울의":7104,"▁달려":7105,"▁매력":7106,"▁기록을":7107,"자본":7108,"late":7109,"화한":7110,"만대":7111,"▁면담":7112,"~6":7113,"▁뜻은":7114,"▁선정됐다":7115,"박스":7116,"▁제품의":7117,"▁빗":7118,"봐야":7119,"▁1996":7120,"비와":7121,"▁있을까":7122,"▁시정":7123,"▁듀":7124,"토록":7125,"였지만":7126,"▁맞게":7127,"행복":7128,"▁일어":7129,"▁농민":7130,"all":7131,"▁미칠":7132,"▁원활":7133,"▁정유":7134,"란히":7135,"▁점령":7136,"모를":7137,"순위":7138,"▁영남":7139,"▁곧바로":7140,"▁66":7141,"중이다":7142,"베르":7143,"특히":7144,"▁넘겨":7145,"근로":7146,"성으로":7147,"▁자리에":7148,"▁출간":7149,"▁대선후보":7150,"▁이듬해":7151,"▁제시한":7152,"▁함유":7153,"주인":7154,"▁비례":7155,"바람":7156,"▁세계에서":7157,"▁호흡":7158,"구나":7159,"▁능력":7160,"역으로":7161,"▁이건":7162,"▁분석한":7163,"▁금속":7164,"중소기업":7165,"▁깊이":7166,"▁강화를":7167,")▶":7168,"cor":7169,"▁수험":7170,"▁들이":7171,"▁동계":7172,"▁무관":7173,"▁폭력":7174,"▁진짜":7175,"▁인기가":7176,"세트":7177,"나눔":7178,"▁명을":7179,"▁개선을":7180,"비의":7181,"청사":7182,"▁충족":7183,"▁지낸":7184,"GB":7185,"▁주지":7186,"자들과":7187,"랜차이즈":7188,"▁vs":7189,"건에":7190,"▁신용등급":7191,"▁개시":7192,"▁않게":7193,"▁이기":7194,"▁g":7195,"해외":7196,"▁나아가":7197,"직한":7198,"메르":7199,"▁53":7200,"사카":7201,"▁\"'":7202,"사업에":7203,"▁박종":7204,"했다가":7205,"▁원자력":7206,"▁이뤄진":7207,"▁굉장":7208,"▁옹":7209,"▁원장":7210,"▁문화체육관광":7211,"▁감정":7212,"시오":7213,"▁신동":7214,"▁쥐":7215,"어져":7216,"킨다":7217,"▁말레이시아":7218,"부품":7219,"정부의":7220,"▁학생들의":7221,"▁실태":7222,"▁시공":7223,"▁조세":7224,"▁드러나":7225,"▁그에":7226,"평을":7227,"수입":7228,"청년":7229,"만간":7230,"▁예정입니다":7231,"▁흰":7232,"임대":7233,"교수":7234,"▁사흘":7235,"ry":7236,"▁업그":7237,"타이어":7238,"▁서구":7239,"▁플래":7240,"MB":7241,"한의":7242,"▁화이트":7243,"▁행사에":7244,"모토":7245,"▁탈출":7246,"소시":7247,"▁롤":7248,"▁음주":7249,"▁철회":7250,"▁그만":7251,"금으로":7252,"▁천안함":7253,"소재":7254,"▁대형마트":7255,"자문":7256,"예정":7257,"교과":7258,"Section":7259,"▁대륙":7260,"▁때도":7261,"리다":7262,"▁독일의":7263,"▁사업의":7264,"▁갈수록":7265,"▁위치해":7266,"예방":7267,"▁한은":7268,"▁강화하고":7269,"▁58":7270,"허가":7271,"▁시의":7272,"▁포함된":7273,"방안":7274,"▁블로그":7275,"확인":7276,"컷뉴스":7277,"▁둘째":7278,"▁역사를":7279,"형은":7280,"▁아프":7281,"▁한국에":7282,"▁머니투데이":7283,"▁결론":7284,"▁가전":7285,"▁무더":7286,"▁이어지는":7287,"▁발표된":7288,"▁선사":7289,"곳에":7290,"▁피아":7291,"놨다":7292,"▁기념해":7293,"시즌":7294,"▁말이다":7295,"창조과학":7296,"▁시작해":7297,"요타":7298,"집을":7299,"▁판매한다":7300,"고속":7301,"▁담배":7302,"▁이밖에":7303,"▁서울신문":7304,"ion":7305,"▁출신의":7306,"▁걸어":7307,"▁전망이":7308,"▁정해":7309,"▁담고":7310,"ff":7311,"▁신청을":7312,"제일":7313,"▁운동을":7314,"▁전부터":7315,"▁교통사고":7316,"심한":7317,"크라이나":7318,"길이":7319,"▁권력":7320,"▁곳에서":7321,"▁2~3":7322,"▁뚜렷":7323,"▁편안":7324,"▁사례가":7325,"▁낮추":7326,"역이다":7327,"▁상가":7328,"▁서식":7329,"▁대립":7330,"▁대장":7331,"렸습니다":7332,"▁슬로":7333,"▁크루":7334,"78":7335,"ain":7336,"▁창작":7337,"▁국가의":7338,"간에":7339,"▁MS":7340,"▁이사장":7341,"▁메시지를":7342,"1,":7343,"▁구미":7344,"▁1994":7345,"▁그들은":7346,"목으로":7347,"▁▦":7348,"▁환경을":7349,"▁진행했다":7350,"▁그만큼":7351,"건설은":7352,"▁두드":7353,"▁이적":7354,"▁저작":7355,"▁순천":7356,"▁속도를":7357,"UV":7358,"▁마르":7359,"▁경기에서":7360,"▁서류":7361,"▁궤":7362,"일까":7363,"▁제고":7364,"▁세대":7365,"▁전체의":7366,"마리":7367,"체제":7368,"▁분명히":7369,"▁무시":7370,"▁안전한":7371,"▁횡령":7372,"▁구조를":7373,"당과":7374,"구와":7375,"회복":7376,"▁회의에서":7377,"▁개헌":7378,"▁어깨":7379,"계열":7380,"▁겹":7381,"▁측이":7382,"▁선착":7383,"악의":7384,"중심":7385,"▁위탁":7386,"▁내각":7387,"▁종류":7388,"지어":7389,"▁복원":7390,"리포니아":7391,"▁소개했다":7392,"시키기":7393,"▁신선한":7394,"▁파이":7395,"han":7396,"▁관찰":7397,"\"\");":7398,"조치":7399,"▁유전":7400,"▁기원전":7401,"▁대해선":7402,"▁과제":7403,"▁갔":7404,"▁본사":7405,"운전":7406,"▁납부":7407,"▁의회":7408,"천원":7409,"▁방한":7410,"여대":7411,"대형":7412,"자연":7413,"▁생겨":7414,"튜디오":7415,"▁방해":7416,"▁타이틀":7417,"▁고객에게":7418,"▁방향을":7419,"▁임신":7420,"주교":7421,"▁박지":7422,"▁앞으로도":7423,"▁몸매":7424,"aram":7425,"▁시기에":7426,"▁차량을":7427,"지역의":7428,"문은":7429,"FTA":7430,"박한":7431,"▁당국":7432,"협상":7433,"▁되었고":7434,"▁대량":7435,"디션":7436,"-4":7437,"▁지닌":7438,"▁가능해":7439,"▁증가하고":7440,"▁분할":7441,"▁번역":7442,"▁폭탄":7443,"▁90%":7444,"홀에서":7445,"NG":7446,"▁패널":7447,"즈의":7448,"▁진행되고":7449,"▁추산":7450,"▁닭":7451,"▁한국과":7452,"mplate":7453,"▁마련됐다":7454,"계는":7455,"▁얻어":7456,"▁설립된":7457,"▁속도":7458,"료는":7459,"▁골드":7460,"▁오브":7461,"▁전기차":7462,"▁신체":7463,"▁모터":7464,"원자":7465,"▁빠진":7466,"▁마련된":7467,"▁개척":7468,"▁엇갈":7469,"▁인명":7470,"ice":7471,"▁항소":7472,"▁신축":7473,"▁연대":7474,"아직":7475,"▁체크":7476,"폭이":7477,"▁리더십":7478,"▁미군":7479,"마케팅":7480,"▁직원들이":7481,"ved":7482,"발언":7483,"▁이석":7484,"DI":7485,"▁유지하고":7486,"▁오늘날":7487,"▁신라":7488,"여자":7489,"▁유가족":7490,"▁상승세를":7491,"▁주기":7492,"▁63":7493,"▁수습":7494,"lu":7495,"낸다":7496,"▁김수":7497,"▁대피":7498,"양의":7499,"▁사내":7500,"est":7501,"▁연설":7502,"▁새누리당은":7503,"된다는":7504,"OP":7505,"세와":7506,"▁이름이":7507,"▁여성이":7508,"티나":7509,".19":7510,"▁몽골":7511,"▁입사":7512,"▁높았다":7513,"성도":7514,"▁조회":7515,"▁중반":7516,"계획을":7517,"▁지원하고":7518,"▁후보로":7519,"업체인":7520,"▁인기뉴스":7521,"사례":7522,"▁이제는":7523,"▁프로세":7524,"민주주의":7525,"▁벼":7526,"▁수익률":7527,"▁서울특별":7528,"▁영동":7529,"스러":7530,"▁담겨":7531,"▁레드":7532,"▁이라크":7533,"▁셋":7534,"▁패배":7535,"▁130":7536,"▁기술이":7537,"된다고":7538,"▁사무총":7539,"▁감축":7540,"하니":7541,"선에서":7542,"▁세무":7543,"▁높아지고":7544,"▁북쪽":7545,"▁민생":7546,"▁집을":7547,".20":7548,"▁운전자":7549,"▁확대해":7550,"▁이집트":7551,"▁근로자":7552,"▁건강한":7553,"▁현대자동차":7554,"▁메인":7555,"투자의":7556,"▁한국을":7557,"▁미국이":7558,"-5":7559,"▁공립":7560,"▁극대화":7561,"▁장악":7562,"▁내놓은":7563,"사실":7564,"▁깨끗":7565,"▁타임":7566,"▁수렴":7567,"▁의미한다":7568,"이동":7569,"▁된다는":7570,"스토어":7571,"▁부적":7572,".\"":7573,"MO":7574,"▁핸":7575,"거든":7576,"박람회":7577,"▁경기를":7578,"▁참여를":7579,"해지고":7580,"앞으로도":7581,"▁뚫":7582,"교류":7583,"▁가격에":7584,"▁시민단체":7585,"▁무대":7586,"▁비율이":7587,"▁1.5":7588,"▁기록하고":7589,"▁선보인":7590,"함과":7591,"▁부총":7592,"▁뜨거운":7593,"공학":7594,"▁수강":7595,"▁이들을":7596,"▁추적":7597,"▁\"\"'":7598,"▁서초구":7599,"▁파격":7600,"▁것이었다":7601,"▁자발":7602,"▁잘못된":7603,"▁잠정":7604,"▁참사":7605,"계약을":7606,"전문가":7607,"KT":7608,"click":7609,"▁주유":7610,"▁황금":7611,"▁강경":7612,"...▶":7613,"▁부산시":7614,"▁하드":7615,"▁탓에":7616,"코드":7617,"벤처":7618,"법의":7619,"▁알게":7620,"▁국민이":7621,"▁분야에":7622,"▁완전":7623,"산업의":7624,"▁화려한":7625,"Tab":7626,"AI":7627,"형으로":7628,"▁생각하는":7629,"▁재발":7630,"▁주민들이":7631,"▁소식에":7632,"축구":7633,"▁순이익":7634,"▁행사가":7635,"지진":7636,"부르크":7637,"▁김지":7638,"▁방통":7639,"▁목표를":7640,"’▶":7641,"경환":7642,"▁멜":7643,"(00":7644,"스바":7645,"▁이메":7646,"▁단순히":7647,"▁비리":7648,"▁일부를":7649,"▁재벌":7650,"내용":7651,"▁클린":7652,"▁부분은":7653,"▁쫓":7654,"▁기소된":7655,"▁헌법재판":7656,"▁가톨릭":7657,"▁대안":7658,"▁점은":7659,"▁세운":7660,"▁상태로":7661,"▁밸":7662,"▁인사청문":7663,"▁가치가":7664,"▁굉장히":7665,"보이는":7666,"set":7667,"나마":7668,"▁옵":7669,"동물":7670,"전주":7671,"▁춤":7672,"▁안심":7673,"▁이수":7674,"발표":7675,"▁넓은":7676,"정과":7677,"▁충분한":7678,"인이다":7679,"▁섞":7680,"▁일방":7681,"▁대상이":7682,"▁현대중공업":7683,"비율":7684,"산의":7685,"▁기원":7686,"▁담보":7687,"보드":7688,"▁추진하는":7689,"노미":7690,"▁철저히":7691,"▁독특한":7692,"▁개관":7693,"▁모두가":7694,"▁현상이":7695,"같이":7696,"▁전자신문":7697,"▁심화":7698,"AC":7699,"▁마련해":7700,"▁총리가":7701,"▁병행":7702,"프는":7703,"▁4000":7704,"▁받아들이":7705,"▁재활":7706,"▁사전에":7707,"결은":7708,"▁현상":7709,"곳을":7710,"▁가야":7711,"▁핫이슈":7712,"전화":7713,"기계":7714,"▁잉글":7715,"세이":7716,".15":7717,"▁구제역":7718,"▁띠":7719,"보수":7720,"▁그쳤다":7721,"▁유상":7722,"▁얻은":7723,"▁체제":7724,"▁else":7725,"판사":7726,"▁삭제":7727,"CN":7728,"▁1500":7729,"셔츠":7730,"▁유망":7731,"▁주장이":7732,"▁태어났다":7733,"▁공인":7734,"▁일정을":7735,"▁돌아가":7736,"▁폴란드":7737,"▁이로써":7738,"문화재":7739,"▁분포":7740,"ink":7741,"▁포트":7742,"▁지난주":7743,"▁기업들의":7744,"str":7745,"▁이후에":7746,"▁고객의":7747,"공공":7748,"르의":7749,"▁불거":7750,"면으로":7751,"마이뉴스":7752,"▁제출한":7753,"▁틈":7754,"▁맞서":7755,"▁급여":7756,"▁김병":7757,"▁록":7758,"▁3%":7759,"▁기능이":7760,"▁떼":7761,"대병원":7762,"▁이른다":7763,"▁작동":7764,"▁대대":7765,"통을":7766,"▁박지원":7767,"▁비상대책":7768,"슈퍼":7769,"ard":7770,"▁출동":7771,"▁저희":7772,"▁인근에":7773,"회로":7774,"▁증명":7775,"▁찌":7776,"▁단축":7777,"회관에서":7778,"▁영업이익이":7779,"설계":7780,"이야":7781,"▁제외하고":7782,"▁나누고":7783,"▁남동":7784,"밀한":7785,"당국은":7786,"▁무인":7787,"▁양적":7788,"Template":7789,"과에":7790,"92":7791,"▁&&":7792,"▁개최했다":7793,"▁다녀":7794,"▁의혹이":7795,"▁찾을":7796,"▁내년부터":7797,"▁프린":7798,"▁조사하고":7799,"▁죽음":7800,"▁체결했다":7801,"▁이어졌다":7802,"▁기자간담":7803,"부동산":7804,"▁독도":7805,"▁이번이":7806,"▁위성":7807,"▁알리":7808,"▁것이고":7809,"▁설비":7810,"▁노르":7811,"▁몸을":7812,"▁아예":7813,"한테":7814,"ase":7815,"▁로드":7816,"▁성매매":7817,"select":7818,"▁일산":7819,"TF":7820,"▁없지만":7821,"▁꿈을":7822,"거래일":7823,"▁비타민":7824,"▁연습":7825,"▁공개한":7826,"▁ranking":7827,"▁둔화":7828,"▁드라이":7829,"\"\"☞":7830,"▁공군":7831,"▁면역":7832,"▁열심히":7833,"▁그녀의":7834,"▁우크라이나":7835,"▁탈북":7836,"FP":7837,"센트":7838,"구청장":7839,"▁공격을":7840,"면의":7841,"▁조만간":7842,"▁목소리가":7843,"▁방법은":7844,"segye":7845,"▁계절":7846,"취업":7847,"차별":7848,"▁선보이고":7849,"기관의":7850,"▁여당":7851,"▁것이며":7852,"▁확대를":7853,"들이다":7854,"▁패밀리":7855,"터를":7856,"파가":7857,"▁조용":7858,"▁이뤄질":7859,"▁강행":7860,"68":7861,"OC":7862,"운동을":7863,"▁끌어올":7864,"이미":7865,"▁검은":7866,"▁의식":7867,"dule":7868,"▁대표를":7869,"▁실질적인":7870,"▁매월":7871,"▁휴가":7872,"Event":7873,"▁찾기":7874,"\",\"":7875,"▁1960":7876,"▁돈이":7877,"▁참여했다":7878,"▁숙박":7879,",[":7880,"▁차관":7881,"▁기대감":7882,"에서만":7883,"▁캘리포니아":7884,"▁이유를":7885,"▁해체":7886,"▁새정치연합":7887,"▁이끄는":7888,"지대":7889,"▁씨를":7890,"▁나서고":7891,"▁집에":7892,"병을":7893,"▁휴대전화":7894,"▁당기순이익":7895,"▁지목":7896,"▁전당":7897,"▁운송":7898,"▁중기":7899,"▁자원봉사":7900,"▁쪽으로":7901,"졌으며":7902,"▁wel":7903,"미가":7904,"▁미래창조과학":7905,"▁출시한":7906,"하자는":7907,"▁현장을":7908,"단장":7909,"화하는":7910,"▁갖는":7911,"들과의":7912,"▁1992":7913,"데스":7914,"▁면적은":7915,"▁떠올":7916,"▁있다며":7917,"층이":7918,"▁매출을":7919,"▁강동":7920,"▁정보통신":7921,"▁비중은":7922,"▁링":7923,".18":7924,"였으나":7925,"▁도움":7926,"▁뮤직":7927,"▁원주":7928,"▁출시된":7929,"십자":7930,"▁이하의":7931,"▁서울시장":7932,"▁출시했다":7933,"이런":7934,"▁적자":7935,"▁항공기":7936,"▁에너":7937,"▁가능하며":7938,"▁110":7939,"▁협약을":7940,".]":7941,"▁사로":7942,"▁검토하고":7943,"▁모니터링":7944,"▁유행":7945,"▁넣어":7946,"▁팝":7947,"▁지름":7948,"alse":7949,"▁전용면적":7950,"▁되기":7951,"▁하이브리드":7952,"▁주식을":7953,"▁차별화된":7954,"여명":7955,"▁과연":7956,"국에서":7957,"▁현장에":7958,"▁스위스":7959,"▁야간":7960,"▁조명":7961,"세한":7962,"노컷뉴스":7963,"치기":7964,"▁엄청난":7965,"▁인테":7966,"구에서":7967,"▁주가는":7968,"(20":7969,"▁유래":7970,"▁주장을":7971,"▁첫날":7972,"▁표기":7973,"네요":7974,"▁기업에":7975,"여름":7976,"위험":7977,"▁어려울":7978,"IA":7979,"▁이것이":7980,"▁모습이다":7981,"▁방치":7982,"▁앉아":7983,"듯이":7984,"▁3.3":7985,"▁검출":7986,"▁막을":7987,"▁생각해":7988,"▁공원":7989,"▁주제":7990,"▁휩":7991,"해질":7992,"▁창조경제":7993,"▁쇄":7994,"▁만나는":7995,"▁중국은":7996,"-3":7997,"▁생물":7998,"▁하나이다":7999,"▁그냥":8000,"▁대비해":8001,"▁출생":8002,"▁어떠":8003,"▁시가총":8004,"selected":8005,"▁사장이":8006,"었으나":8007,"▁배터리":8008,"▁줄여":8009,"▁과학기술":8010,"▁false":8011,"▁삼성전자가":8012,"줘야":8013,"▁지방자치단체":8014,"랜트":8015,"▁74":8016,"▁좌우":8017,"일인":8018,"▁페르":8019,"이와":8020,"노인":8021,"▁춘":8022,"▁잦":8023,".“":8024,"▁가서":8025,"▁항목":8026,"▁FIFA":8027,"▁꺾":8028,"▁톱":8029,"▁그랜드":8030,"▁스타트":8031,"미니":8032,"정부는":8033,"▁광복":8034,"▁상상":8035,"▁중국에서":8036,"▁국내에":8037,"▁기업을":8038,"▁세탁":8039,"가입":8040,"달라고":8041,"▁남양":8042,"민의":8043,"ach":8044,"▁사용되는":8045,"▁유일하게":8046,"▁2.0":8047,"▁LH":8048,"▁연관":8049,"▁그럼":8050,"▁적절한":8051,"▁파티":8052,"▁구독신청":8053,"▁햇":8054,"▁안동":8055,"▁내비":8056,"라톤":8057,"▁안산":8058,"yung":8059,"강남":8060,"▁SW":8061,"▁하나인":8062,"for":8063,"▁다음은":8064,"▁턱":8065,"▁진행될":8066,"▁근육":8067,"받침":8068,"▁시점":8069,"▁원인이":8070,"▁공간을":8071,"▁표명":8072,"▁높이기":8073,"안철수":8074,"▁내지":8075,"▁시대에":8076,"▁가능성은":8077,"공시":8078,"▁점이다":8079,"▁배우이다":8080,"▁곳으로":8081,"▁삼성물산":8082,"▁마지막으로":8083,"▁되면서":8084,"선과":8085,"았지만":8086,"학년도":8087,"▁입장이다":8088,"▁두려":8089,"▁가입자":8090,"▁업그레이드":8091,"어버":8092,"]]":8093,"▁스티":8094,"▁조종":8095,"속보":8096,"▁억제":8097,"등을":8098,"리면서":8099,"▁이르면":8100,"▁알렉":8101,"지역에":8102,"▁오스트리아":8103,"▁성향":8104,"▁건강보험":8105,"▁태어난":8106,"▁최적":8107,"정신":8108,"담보":8109,"사기":8110,"▁기증":8111,"▁마사":8112,"크를":8113,"▁예상되는":8114,"▁말하는":8115,"문재인":8116,"▁패키지":8117,"학원":8118,"▁때부터":8119,"▁부분에":8120,"▁미국은":8121,"▁라는":8122,"거든요":8123,"▁신년":8124,"화장":8125,"SNS":8126,"끼리":8127,"▁이외에도":8128,"히고":8129,"▁전송":8130,"▁미래에셋":8131,"변화":8132,"▁비중을":8133,"프라이":8134,"정비":8135,"(18":8136,"작가":8137,"(-0":8138,"▁서쪽":8139,"gu":8140,"▁실시하고":8141,"사들의":8142,"▁추정된다":8143,"▁사령":8144,"▁로켓":8145,"▁물량":8146,"▁모델을":8147,"▁재능":8148,"▁뼈":8149,"▁충전":8150,"▁지리":8151,"▁벌였다":8152,"청주":8153,"키스탄":8154,"▁얻었다":8155,"▁집에서":8156,"hy":8157,"▁조심":8158,"▁이상으로":8159,"▁청소":8160,"▁헤어":8161,"▁정상화":8162,"▁아이패드":8163,"▁좋겠다":8164,"▁시대의":8165,"개인":8166,"▁게다가":8167,"bp":8168,"지하":8169,"▁시달":8170,"사회의":8171,"▁판매하는":8172,"애플":8173,"▁장병":8174,"▁캠핑":8175,"▁쓰레":8176,"▁아일랜드":8177,"▁초래":8178,"▁원인을":8179,"완화":8180,"▁인간의":8181,"▁잠수":8182,"▁비디오":8183,"▁떠오":8184,"▁대박":8185,"모터":8186,"▁정규직":8187,"▁흐름을":8188,"▁엉":8189,"▁지냈다":8190,"벤션":8191,"▁유용":8192,"CEO":8193,"▁밀려":8194,"▁연구를":8195,"▁1993":8196,"▁일반적인":8197,"sc":8198,"▁아니고":8199,"▁감안하면":8200,"▁스키":8201,"▁빌려":8202,"▁흑자":8203,"▁권리":8204,"▁먹을":8205,"▁1988":8206,"기온은":8207,"렸고":8208,"▁붉은":8209,"르신":8210,"63":8211,"▁사용하고":8212,"▁매니":8213,"▁결과는":8214,"▁강도":8215,"▁프랑스의":8216,"▁기념촬영":8217,"▁공사를":8218,"▁건국":8219,"▁빌딩":8220,"▁대법원":8221,"▁번째로":8222,"▁유아":8223,"▁지어":8224,"▁모델로":8225,"공천":8226,"▁문화예술":8227,"▁성추행":8228,"▁공정거래":8229,"▁선착순":8230,"▁크고":8231,"FM":8232,"▁반대로":8233,"▁수험생":8234,"주군":8235,"▁보여주":8236,"▁환자가":8237,"▁기기":8238,"▁배려":8239,"▁동결":8240,"▁이룬":8241,"▁구체적으로":8242,"▁심장":8243,"▁대우조선":8244,"▁도중":8245,"융합":8246,"▁진영":8247,"·2":8248,"뉴욕":8249,"▁성공적으로":8250,"67":8251,"나갈":8252,"▁생성":8253,"▁김민":8254,"▁지점":8255,"▁탁월":8256,"▁받아야":8257,"tain":8258,"무기":8259,"▁댄":8260,"▁배정":8261,"▁아랍":8262,"측이":8263,"▁빼앗":8264,"▁식민":8265,"▁라이브":8266,"방지":8267,"절을":8268,"추천":8269,"▁분석이다":8270,"방이":8271,"푸드":8272,"!’":8273,"▁가고":8274,"Con":8275,"▁별도":8276,"▁1991":8277,"▁기간에":8278,"▁싫":8279,"▁알리는":8280,"▁연수":8281,"배상":8282,"▁흔히":8283,"▁기업은":8284,"▁엄격":8285,"인데요":8286,"바지":8287,"”,":8288,"▁규모를":8289,"▁선보일":8290,"제철":8291,"▁면제":8292,"><":8293,"매출":8294,"서울시":8295,"▁가능할":8296,"51":8297,"▁와인":8298,"▁특강":8299,"▁치열한":8300,"▁많고":8301,"▁수면":8302,"▁하던":8303,"급여":8304,"▁In":8305,"▁역량":8306,"▁자료사진":8307,"만은":8308,"진과":8309,"생활을":8310,"유치":8311,"▁가해":8312,"▁세계적으로":8313,"▁HD":8314,"▁동쪽":8315,"경에":8316,"▁68":8317,"▁일자리를":8318,"호의":8319,"▁조속":8320,"그룹이":8321,"▁진행한":8322,"▁디젤":8323,"oT":8324,"시리즈":8325,"▁전까지":8326,"▁필요하다는":8327,"▁임기":8328,"▁입원":8329,"타이":8330,"▁방위":8331,"았으며":8332,"위원회에":8333,"▁약간":8334,"▁가게":8335,"학의":8336,"▁아닌가":8337,"▁판매를":8338,"▁의류":8339,"▁성형":8340,"자료를":8341,"▁배상":8342,"▁현안":8343,"▁측면에서":8344,"▁족":8345,"카카오":8346,"기소":8347,"브라":8348,"▁전달했다":8349,"부장관":8350,"ac":8351,"▁이병":8352,"▁고객을":8353,"수기":8354,"▁주목을":8355,"';":8356,"▁전직":8357,"▁말해":8358,"▁도모":8359,"▁동아일보":8360,"▁듯한":8361,"irst":8362,"▁이용자":8363,"▁유승민":8364,"▁순환":8365,"▁침체":8366,"▁아무런":8367,"▁간호":8368,"투어":8369,"▁기관은":8370,"▁엑":8371,"▁도달":8372,"▁프랜차이즈":8373,"▁특성":8374,"▁벌써":8375,"▁즐거":8376,"▁보냈다":8377,"▁이런일이":8378,"▁협상을":8379,"내일신문":8380,"▁달했다":8381,"실과":8382,"자산운용":8383,"나와":8384,"교육청은":8385,"▁냉장":8386,"퍼런스":8387,"▁응모":8388,"금의":8389,"법과":8390,"▁힘이":8391,"Date":8392,"▁의원과":8393,"··":8394,"산이":8395,"▁경기가":8396,"▁닛":8397,"요한":8398,"동아닷컴":8399,"TM":8400,"▁음식을":8401,"하겠습니다":8402,"겨울":8403,"전지":8404,"▁탈퇴":8405,"▁나중에":8406,"▁스트레":8407,"지원센터":8408,"포먼":8409,"▁증언":8410,"▁초점을":8411,"▁지분을":8412,"다음":8413,"차의":8414,"스바겐":8415,"▁당국은":8416,"▁발주":8417,"▁잇는":8418,"보자":8419,"락을":8420,"▁내륙":8421,"▁폰":8422,"우리는":8423,"커피":8424,"▁홍준표":8425,"▁손님":8426,"▁가질":8427,"▁이익을":8428,"▁유효":8429,"▁중국과":8430,"▁소년":8431,".16":8432,"▁곳이다":8433,"연은":8434,"다리":8435,"메가":8436,"▁67":8437,"ip":8438,"▁아기":8439,"캐피":8440,"▁결성":8441,"▁캄":8442,"naver":8443,"홍보":8444,"▁중에는":8445,"▁김한":8446,"▁선전":8447,"통상자원":8448,"위원은":8449,"▁한우":8450,"▁ICT":8451,"▁다짐":8452,"졌지만":8453,"▁남성이":8454,"오픈":8455,"▁대단":8456,"▁조이":8457,"브리":8458,"▁덕분에":8459,"시께":8460,"~8":8461,"라운드":8462,"▁앓":8463,"▁의원을":8464,"▁본인":8465,"▁제어":8466,"▁사립":8467,"▁추억":8468,"▁특급":8469,"곳에서":8470,"▁나아":8471,"corp":8472,"▁거절":8473,"▁열려":8474,"▁관계가":8475,"IB":8476,"▁타격":8477,"59":8478,"값이":8479,"주얼":8480,"▁않기":8481,"그리":8482,"▁관리를":8483,"▁승용차":8484,"▁빅데이터":8485,"▁//":8486,"▁또다시":8487,"’...":8488,"▁규탄":8489,"동조합":8490,"▁내내":8491,"▁진출을":8492,"▁중국인":8493,"▁낙찰":8494,"▁판단했다":8495,"54":8496,"아이폰":8497,"▁경험이":8498,"션은":8499,"▁회동":8500,"▁구성되어":8501,"ke":8502,"▁논쟁":8503,"3,":8504,"교육감":8505,"▁수상했다":8506,"▁제품으로":8507,"▁정치권":8508,"석은":8509,"조로":8510,"▁존중":8511,"▁전사":8512,"▁반대하는":8513,"▁바르":8514,"▁가깝":8515,"ECD":8516,"▁멘토":8517,"개사":8518,"▁아빠":8519,"▁패턴":8520,"달아":8521,"전망":8522,"▁심한":8523,"▁160":8524,"▁동영":8525,"지능":8526,"금리를":8527,"기압":8528,"세훈":8529,"경영자":8530,"▁방송통신":8531,"▁주민들의":8532,"▁성명":8533,"▁소규모":8534,"▁정황":8535,"▁했으나":8536,"▁데이터를":8537,"패를":8538,"▁구청":8539,"▁꼽았다":8540,"module":8541,"▁롯데백화점":8542,"▁박물관":8543,"▁세트":8544,"▁해임":8545,"▁펀":8546,"▁난민":8547,"▁MOU":8548,"▁수송":8549,"▁0.5":8550,".13":8551,"fe":8552,"공제":8553,"▁그간":8554,"▁오른쪽":8555,"▁잉글랜드":8556,"▁균형":8557,"▁펼치고":8558,"▁했다는":8559,"▁인적":8560,"▁우승을":8561,"고한":8562,"받기":8563,"▁트리":8564,"▁몇몇":8565,"건은":8566,"▁연료":8567,"을까":8568,"▁119":8569,"의약품":8570,"사무소":8571,"▁적정":8572,"▁연내":8573,"▁재단":8574,"▁환율은":8575,")-":8576,"om":8577,"▁KTX":8578,"진흥원":8579,"계층":8580,"차에":8581,"▁도약":8582,"위원회에서":8583,"▁과도한":8584,"탄을":8585,"홈쇼핑":8586,"▁이뤄졌다":8587,"트롤":8588,"종으로":8589,"▁미세먼지":8590,"▁변신":8591,"▁접어":8592,"▁않지만":8593,"▁않았지만":8594,"▁클릭":8595,"od":8596,"▁둘러싸":8597,"로에":8598,"▁높일":8599,"색을":8600,"”...":8601,"▁모르는":8602,"▁승리를":8603,"▁배달":8604,"테러":8605,"계좌":8606,"▁콘셉":8607,"urn":8608,"▁확대할":8609,"▁영장":8610,"▁업체가":8611,"▁주변에":8612,"제조":8613,"▁롯데마트":8614,"▁아니면":8615,"▁질의":8616,"월의":8617,"▁전부":8618,"▁중견":8619,"▁마크":8620,"▁국무총":8621,"▁승부":8622,"▁깜짝":8623,"▁있는데요":8624,"▁요청했다":8625,"▁수준에":8626,"기술을":8627,"유예":8628,"▁5·":8629,"어촌":8630,"▁모은":8631,"태평양":8632,"사법":8633,".00":8634,"▁패러":8635,"방에":8636,"▁국민일보에":8637,"▁양도":8638,"방위":8639,"Hz":8640,"물과":8641,"▁농산물":8642,"▁코너":8643,"▁측의":8644,"▁계승":8645,"▁현역":8646,"베스트":8647,"▁부친상":8648,"랫동안":8649,"업계에":8650,"▁코엑스":8651,"▁최다":8652,"▁진정한":8653,"▁기반을":8654,"제작":8655,"▁서울특별시":8656,"▁다리":8657,"종이다":8658,"하지는":8659,"▁유료":8660,"chos":8661,"▁강세를":8662,"▁77":8663,"▁관여":8664,"▁넥슨":8665,"이게":8666,"냄새":8667,"▁정도가":8668,"▁받아들여":8669,"▁아트":8670,"▁판매가":8671,"키아":8672,"▁무릎":8673,"집행":8674,"▁기각":8675,"▁마련한":8676,"▁알파":8677,"▁고문":8678,"▁사건의":8679,"lee":8680,"$('":8681,"▁차원의":8682,"스토리":8683,"▁체결했다고":8684,"▁유의":8685,"리엄":8686,"▁떨어지는":8687,"금과":8688,"▁간담회":8689,"▁작전":8690,"▁폭염":8691,"나타":8692,"▁접한":8693,"▁15%":8694,"▁고조":8695,"방안을":8696,"▁시대를":8697,"▁요소":8698,"▁비율은":8699,"▁받기":8700,"▁두번째":8701,"▁이경":8702,"▁압도":8703,"▁김연":8704,"▁목숨을":8705,"▁수술을":8706,"▁이었다":8707,"▁목격":8708,"▁준비를":8709,"▁층":8710,"규제":8711,"▁72":8712,"▁텍":8713,"블록":8714,"▁농가":8715,"지상":8716,"겠느냐":8717,"▁유권자":8718,"▁oJson":8719,"동부":8720,"▁140":8721,"▁위기에":8722,"▁파산":8723,"삼성전자":8724,"저우":8725,"일자":8726,"라비아":8727,"▁제품이":8728,"▁군의":8729,"IST":8730,"▁입점":8731,"▁최강":8732,"게는":8733,"▁다음날":8734,"표준":8735,"하라는":8736,"▁국세청":8737,"▁닮":8738,"▁말한":8739,"▁래":8740,"▁찰":8741,"▁진도":8742,"DA":8743,"소한":8744,"석유":8745,"▁우려를":8746,"tit":8747,"▁집회":8748,"▁측근":8749,"▁그래픽":8750,"▁가벼":8751,"▁1~2":8752,"화하고":8753,"머리":8754,"▁경제가":8755,"▁특혜":8756,"프를":8757,"▁장소":8758,"▁기여할":8759,"▁히로":8760,"▁기록하며":8761,"기한":8762,"▁테크":8763,"화재":8764,"▁사고를":8765,"▁차지하고":8766,"ot":8767,"61":8768,"▁벌인":8769,"▁부사장":8770,"▁마음이":8771,"▁외무":8772,"▁태평양":8773,"▁전국의":8774,"▁되돌":8775,"▁합쳐":8776,"실의":8777,"아리":8778,"심판":8779,"82":8780,"빌딩":8781,"▁지주":8782,"제보":8783,"▁하계":8784,"졌던":8785,"▁회수":8786,"지노":8787,"▁다수의":8788,"▁세웠다":8789,"▁늘어났다":8790,"▁km":8791,"▁제국":8792,"chosun":8793,"▁베네":8794,"▁추천주":8795,"heraldcorp":8796,"▁OS":8797,"▁회사가":8798,"▁당한":8799,"▁필요하다고":8800,"▁아직도":8801,"▁행복한":8802,"EN":8803,"충남":8804,"▁자연스럽게":8805,"▁경쟁이":8806,"▁혁명":8807,"포착":8808,"▁de":8809,"뉴얼":8810,".24":8811,"(14":8812,"▁쉬운":8813,"▁거래되고":8814,"정책을":8815,"군수":8816,"라가":8817,"(11":8818,"비서관":8819,"▁1989":8820,"버트":8821,"▁투자자":8822,"▁한경닷컴":8823,"해왔":8824,"▁쿠폰":8825,"▁협의를":8826,"▁끌었다":8827,"▁의하면":8828,"국립":8829,"▁둥":8830,"▁냈":8831,"▁이화":8832,"▁살펴보면":8833,"▁탈락":8834,"▁퍼포먼":8835,"라이드":8836,"ms":8837,"▁맛을":8838,"▁][":8839,"연의":8840,"▁'10":8841,"▁--":8842,"개편":8843,"▁성공했다":8844,"하에":8845,"▁전액":8846,"▁김일":8847,"▁일본에서":8848,"감과":8849,"실한":8850,"나의":8851,"▁박성":8852,"▁논의를":8853,"비에":8854,"▁(19":8855,"▁끊임":8856,"▁지역으로":8857,"▁영웅":8858,"▁추세":8859,"엔터테인먼트":8860,"▁허리":8861,"▁발령":8862,"▁CBS":8863,"▁전략적":8864,"수급":8865,"▁김승":8866,"▁동구":8867,"리조트":8868,"▁강세":8869,"당시":8870,"▁지정되었다":8871,"▁상태를":8872,"▁포장":8873,"▁나타내고":8874,"cho":8875,"적한":8876,"▁나타난":8877,"▁대결":8878,"▁시나":8879,"▁유사한":8880,"지니어링":8881,"교안":8882,"양이":8883,"서스":8884,"▁자제":8885,"작업을":8886,"▁고시":8887,"▁신중":8888,"카페":8889,"▁스크린":8890,"▁병원으로":8891,"▁연평":8892,"▁크기":8893,"▁닥":8894,"▁숭":8895,"▁MBN":8896,"이노":8897,"정도":8898,"▁협박":8899,"@[":8900,"▁통합진보":8901,"▁나뉘":8902,"▁성분":8903,"▁신한금융":8904,"종은":8905,"▁공작":8906,"늦게":8907,"▁기사는":8908,"시픽":8909,"▁식사":8910,"69":8911,"83":8912,"~7":8913,"▁델":8914,"▁공익":8915,"▁악성":8916,"▁의약품":8917,"켰다":8918,"▁원내대표가":8919,"범위":8920,"▁느낌을":8921,"병대":8922,"▁Re":8923,"설이":8924,"▁구름":8925,"▁긍정적":8926,"▁기상청은":8927,"번에":8928,"▁자유롭게":8929,"▁서울에서":8930,"목적":8931,"▁이광":8932,"출을":8933,"▁밝히고":8934,"체인":8935,"보도":8936,"▁점유율":8937,"▁후에는":8938,"▁대부분이":8939,"▁단백":8940,"▁시작한다":8941,"사단":8942,"▁양호":8943,"▁성립":8944,"▁전시회":8945,"▁활동에":8946,"▁SM":8947,"▁인디":8948,"▁전화를":8949,"이었지만":8950,"▁엘리":8951,"▁동네":8952,"und":8953,"▁버전":8954,"왕의":8955,"▁내릴":8956,"ys":8957,"▁right":8958,"검토":8959,"▁제네":8960,"▁사랑의":8961,"에서부터":8962,"▁핑":8963,"▁개정안":8964,"투스":8965,"효율":8966,"매일":8967,"측의":8968,"EA":8969,"▁분석이":8970,"▁주목된다":8971,"로서의":8972,"반기에":8973,"show":8974,"▁쿠키":8975,"▁자택":8976,"▁선보이는":8977,"동강":8978,"▁식물":8979,"▁손상":8980,".30":8981,"▁고백":8982,"▁직원이":8983,"▁사항은":8984,"▁꼽힌다":8985,"▁일찍":8986,"▁특징주":8987,"▁않는다는":8988,"▁유럽연합":8989,"▁삼성전자의":8990,"▁예정된":8991,"▁액션":8992,"▁STX":8993,"▁갚":8994,"▁상영":8995,"▁한양":8996,"▁재생":8997,"▁뛰어나":8998,"판이":8999,"▁보도합니다":9000,"▁무렵":9001,"▁쓰러":9002,"PL":9003,"하기는":9004,"행사를":9005,"▁부착":9006,"▁위기를":9007,"▁경력":9008,"▁의장은":9009,"▁사찰":9010,"▁비공개":9011,"Fn":9012,"▁do":9013,"▁정몽":9014,"▁김장":9015,"우기":9016,"▁웰":9017,"리즘":9018,"▁오랫동안":9019,"▁강서":9020,"▁했으며":9021,"▁맺고":9022,"코스피":9023,"▁북한에":9024,"▁환자의":9025,"▁이준":9026,"▁연평균":9027,"보조":9028,"▁독점":9029,"절한":9030,"▁일관":9031,"▁대다":9032,"▁리비아":9033,"대회를":9034,"▁철저한":9035,"▁동성":9036,"▁바이러스":9037,"tr":9038,"▁없었던":9039,"▁메이크":9040,"▁재해":9041,"행이":9042,"▁확대하고":9043,"폭을":9044,"▁분산":9045,"▁</":9046,"졌다는":9047,"orts":9048,"▁한국은행":9049,"▁단위":9050,"▁성공한":9051,"▁소식이":9052,"▁않았고":9053,"희정":9054,"▁계획이라고":9055,"목표":9056,"Ro":9057,"팀을":9058,"그린":9059,"▁삽":9060,"▁구로":9061,"축산":9062,"들에게는":9063,"▁증정한다":9064,"▁지금의":9065,"소장":9066,"▁개인의":9067,"▁없도록":9068,"마를":9069,"▁62":9070,"▁아쉬":9071,"▁거친":9072,"연수":9073,"▁분열":9074,"▁당의":9075,"▁송도":9076,"▁논란을":9077,"▁박상":9078,"▁한류":9079,"▁사건에":9080,"▁봐야":9081,"▁부정적인":9082,"artic":9083,"카와":9084,"▁02-":9085,"학규":9086,"과정에서":9087,"▁대치":9088,"▁아이들이":9089,"▁생기":9090,"ookie":9091,"▁목소리":9092,"oc":9093,"리얼":9094,"▁우리나라의":9095,"▁대상은":9096,"(12":9097,"▁되며":9098,"▁인상을":9099,"사진제공":9100,"]'":9101,"▁밴":9102,"72":9103,"iae":9104,"있게":9105,"소시엄":9106,"▁순위":9107,"▁출신으로":9108,"미는":9109,"▁성명을":9110,"▁떡":9111,"▁김정일":9112,"클래":9113,"▁묻는":9114,"뒀다":9115,"총회":9116,"진에":9117,"외과":9118,"▁1950":9119,"▁자동으로":9120,"▁측에":9121,"▁육아":9122,"▁한국에서":9123,"▁구상":9124,"▁총장은":9125,"구매":9126,"비드":9127,"▁열리고":9128,"▁1987":9129,"▁읽는":9130,"기본":9131,"▁부터":9132,"래프트":9133,"53":9134,"▁확립":9135,"역의":9136,"▁예비후보":9137,"관용":9138,"▁공중":9139,"청와":9140,"▁국고":9141,"경기도":9142,"▁비싼":9143,"▁봤다":9144,"어와":9145,"▁관절":9146,"▁군산":9147,"레드":9148,"한데":9149,"▁줄일":9150,"경의":9151,"▁기도":9152,"▁살려":9153,"▁고유":9154,"▁무한":9155,"▁주부":9156,".27":9157,"▁음료":9158,"▁접목":9159,"▁위험이":9160,"▁나타나는":9161,"▁성사":9162,"▁존재한다":9163,"▁소매":9164,"▁기관이":9165,"▁합성":9166,"▁출자":9167,"들인":9168,"~1":9169,"▁한국은":9170,"Cookie":9171,"▁입지":9172,"mage":9173,"▁경향신문":9174,"▁감면":9175,"▁행위를":9176,"▁혈액":9177,"▁전수":9178,"▁대변인":9179,"과정을":9180,"▁않아도":9181,"▁정책에":9182,"▁말에":9183,"전형":9184,"▁큐":9185,"▁news":9186,"▁헤드":9187,"▁서울중앙지검":9188,"89":9189,"▁모았다":9190,"▁사람들을":9191,"해지는":9192,"▁논문":9193,"▁바람직":9194,".14":9195,"▁결코":9196,"질랜드":9197,"indow":9198,"▁산업통상자원":9199,"▁클래식":9200,"▁맞지":9201,"방의":9202,"▁한창":9203,"▁않다는":9204,"▁일제히":9205,"▁등장하는":9206,"▁한중":9207,"▁모으고":9208,"▁원천":9209,"▁정확히":9210,"▁4·":9211,"▁별다른":9212,"▁확인하고":9213,"▁가리킨다":9214,"금액":9215,"조한":9216,"역은":9217,"합병":9218,"▁국회에":9219,"▁사회의":9220,"▁어떠한":9221,"▁본문":9222,"▁복구":9223,"루스":9224,"선진":9225,"▁진주":9226,"▁중국에":9227,"림을":9228,"▁포르투":9229,"▁대상을":9230,"와이":9231,"분기에":9232,"▁얘기를":9233,"▁강요":9234,"▁배우는":9235,"▁타이어":9236,"역과":9237,"▁추첨을":9238,"▁방침을":9239,"▁순매도":9240,".26":9241,"▁발전에":9242,"▁운영한다":9243,"투자증권은":9244,"▁백악":9245,"▁를":9246,"inews":9247,"사업의":9248,"▁특화":9249,"협약을":9250,"▁물어":9251,"사들은":9252,"▁태어나":9253,"▁CD":9254,"가루":9255,"를린":9256,"진영":9257,"▁당뇨":9258,"에게도":9259,"fa":9260,"▁종이":9261,"~201":9262,"▁납치":9263,"공사가":9264,"소비자":9265,"▁4,":9266,"article":9267,"ld":9268,"▁식으로":9269,"▁아카데미":9270,"73":9271,"》,":9272,"▁양자":9273,"▁삼성동":9274,"골을":9275,"▁개최한다고":9276,"파의":9277,"(16":9278,"▁요시":9279,"app":9280,"▁지사는":9281,"▁없기":9282,"대선":9283,"품질":9284,"▁만든다":9285,"▁사용한다":9286,"SC":9287,"▁스코":9288,"▁시인":9289,"사드":9290,"▁세력":9291,"▁출국":9292,"업에":9293,"▁증가할":9294,"▁.":9295,"회의실에서":9296,"▁부천":9297,"▁흡연":9298,"▁김형":9299,"▁자가":9300,"▁위주로":9301,"▁주파":9302,"▁것인지":9303,"▁증상이":9304,"▁co":9305,"고의":9306,"▁남구":9307,"▁대답":9308,"▁단순한":9309,"▁조합원":9310,"▁탈당":9311,"환자":9312,"▁명시":9313,"▁산학":9314,"란을":9315,"▁거대한":9316,"SA":9317,".17":9318,"▁등산":9319,"▁터치":9320,"▁별로":9321,"▁경제의":9322,"og":9323,"▁부서":9324,"상승포착":9325,"~10":9326,"▁그것을":9327,"▁시신":9328,"▁미사":9329,"av":9330,"?)":9331,"케미":9332,"▁전년대비":9333,"▁뿌리":9334,"▁제작한":9335,"면에서":9336,"▁왜곡":9337,"▁관내":9338,"크는":9339,"▁실용":9340,"▁도박":9341,"시간을":9342,"▁노력하겠다":9343,"▁고용노동":9344,"론이":9345,"사전":9346,"두에":9347,".28":9348,".-":9349,"▁다행":9350,"▁99":9351,"인재":9352,"▁정례":9353,"▁쉐":9354,"남부":9355,"▁올바른":9356,"▁비용이":9357,"▁의정부":9358,"▁하더라도":9359,"▁최대의":9360,"곳의":9361,"▁우울":9362,"▁어르신":9363,"플라":9364,"▁곳곳에":9365,"▁시간에":9366,"▁중점":9367,"▁디자인을":9368,"하의":9369,"▁지원해":9370,"▁서서":9371,"79":9372,"▁걸려":9373,"▁철학":9374,"▁말로":9375,"▁학생들은":9376,"사스":9377,"▁지역경제":9378,"쉽게":9379,"▁때문입니다":9380,"▁된다고":9381,"테마":9382,"▁아는":9383,"▁희망을":9384,"▁이후에는":9385,"▁누군":9386,"▁관계자들이":9387,"온다":9388,"▁르노":9389,"▁캔":9390,"SI":9391,"▁샘":9392,"▁유성":9393,"살을":9394,"▁김대중":9395,"▁과태":9396,"▁읍":9397,"▁여러분":9398,"한국당":9399,"▁구성해":9400,"▁꼼꼼":9401,"스트라":9402,"▁소수":9403,"▁선정해":9404,"테이너":9405,"▁명동":9406,"▁즐겁":9407,"▁전국에":9408,"ber":9409,"▁사례를":9410,"렸던":9411,"tainer":9412,"▶[":9413,"▁강화해":9414,"▁지불":9415,"▁심판":9416,"주요":9417,"▁부른다":9418,"▁오를":9419,"서울신문사":9420,"극장":9421,"▁규칙":9422,"▁지향":9423,"▁방법이":9424,"조달":9425,"▁말라":9426,"▁체감":9427,"▁민주노총":9428,"▁찾아가":9429,"▁돕는":9430,"hk":9431,"▁가중":9432,"▁스마트폰을":9433,"나라는":9434,"회의에":9435,"▁일이다":9436,"▁라이프":9437,"▁장성":9438,"시스템을":9439,"▁뒷받침":9440,"▁시설을":9441,"▁경쟁을":9442,"▁사로잡":9443,"▁제안했다":9444,"▁감상":9445,"사업은":9446,"▁해주":9447,"▁정통":9448,"▁기조":9449,"▁불과하다":9450,"▁있었는데":9451,"▁요구를":9452,"▁본래":9453,"▁적응":9454,"광장에서":9455,"▁마약":9456,"▁지침":9457,"▁유전자":9458,"스타일":9459,"▁선수이다":9460,"▁위촉":9461,"▁61":9462,"자격":9463,"▁줄이고":9464,"기업이":9465,"▁제품에":9466,"▁일치":9467,"▁마침":9468,"▁민주당은":9469,"▁가라":9470,"귀포":9471,"][☞":9472,"▁막아":9473,"▁여신":9474,"▁이끌고":9475,"▁지난해보다":9476,"▁고도":9477,"▁덴마크":9478,"놓은":9479,"▁운영을":9480,"후군":9481,"▁도시로":9482,"▁동대문":9483,"43":9484,"▁파일":9485,"▁결정할":9486,"▁주장하는":9487,"strong":9488,"》(":9489,"겨진":9490,"▁연동":9491,"포커스":9492,"께서":9493,"▁부회장은":9494,"▁그렇다면":9495,"▁끝내":9496,"까지의":9497,"PA":9498,"▁조사에":9499,"▁보여준다":9500,"bj":9501,"▁제임":9502,"▁극단":9503,"▁중장기":9504,"청의":9505,"▁교육부":9506,"▁고가":9507,"▁최악의":9508,"▁연결하는":9509,".5%)":9510,"티드":9511,"화해":9512,"▁금융투자":9513,"▁회장을":9514,"▁뒤집":9515,"▁유상증":9516,"▁유지했다":9517,"▁위치하고":9518,"▁느낀":9519,"처는":9520,"▁정원":9521,"▁선을":9522,"▁썼다":9523,"▁실시했다":9524,"▁이후에도":9525,"MI":9526,"').":9527,"~30":9528,"▁밝혀졌다":9529,"식장":9530,"▁교도":9531,"▁베르":9532,".22":9533,"▁적합한":9534,"71":9535,"▁연루":9536,"▁객관":9537,"▁공동대표":9538,"▁합작":9539,"산은":9540,"로지":9541,"협회는":9542,"▁클린턴":9543,"▁기자들과":9544,"▁의도":9545,"Cnt":9546,"▁시민들의":9547,"commentCnt":9548,"▁2016.0":9549,"▁회사채":9550,"▁홈페이지를":9551,"트와":9552,"▁과장":9553,"▁제보하기":9554,"천억":9555,"▁것인가":9556,"▁심사를":9557,"내년":9558,"▁영광":9559,"▁발탁":9560,"!)[":9561,"▁기록해":9562,"▁짙":9563,"치며":9564,"스피":9565,"▁갈등을":9566,"▁아니라고":9567,"▁갖는다":9568,"▁없게":9569,"▁부패":9570,"▁스튜디오":9571,"티아":9572,"▁손실":9573,"▁기대를":9574,"▁다우":9575,"▁회장과":9576,"▁지역사회":9577,"sed":9578,"▁덩":9579,"▁바뀐":9580,"▁두드러":9581,"라이프":9582,"▁들어가는":9583,"▁소비자들의":9584,"▁티켓":9585,"▁아닐":9586,"▁전산":9587,"▁식당":9588,"▁도서":9589,"▁이태":9590,"▁경품":9591,"▁상속":9592,"▁이번에는":9593,"▁더민주":9594,"▁보이며":9595,"나도":9596,"▁응시":9597,"▁아이를":9598,"▁차량이":9599,"nb":9600,"류에":9601,"▁“(":9602,"tv":9603,"categor":9604,"IG":9605,"력발전":9606,"▁25%":9607,"▁땐":9608,"▁DB":9609,"▁안양":9610,"▁LCD":9611,"재배":9612,"~19":9613,"▁불리":9614,"▁금메달":9615,"▁들려":9616,"▁붙여":9617,"집니다":9618,"▁주당":9619,"▁6000":9620,"석의":9621,"제품을":9622,"지다":9623,"▁매장을":9624,"생태":9625,"▁고구":9626,"▁플라":9627,"▁인천공항":9628,"▁저가":9629,"▁마켓":9630,"▁목표주가":9631,"···":9632,"▁배송":9633,"널드":9634,"'][":9635,"▁불어":9636,"▁설명했습니다":9637,"▁커플":9638,"▁강좌":9639,"▁차를":9640,"▁발생해":9641,"▁교과서":9642,"▁오사카":9643,"▁오름":9644,"RA":9645,"KB":9646,"▁아르헨":9647,"▁음악을":9648,"▁웹사이트":9649,"▁향한":9650,"풍이":9651,"▁폭으로":9652,"숙한":9653,"▁싶어":9654,"유플러스":9655,"▁스페셜":9656,"▁교섭":9657,"▁유지할":9658,"만족":9659,"▁사업자":9660,"▁장치":9661,"학기":9662,"▁거래일":9663,"저는":9664,"▁캡처":9665,"코노미":9666,"랍니다":9667,"text":9668,"▁역사적":9669,"▁문제와":9670,"▁전인":9671,"▁갖게":9672,"▁의원들이":9673,"▁보좌":9674,".3%)":9675,"▁예정이라고":9676,"가며":9677,"▁전년동기":9678,"▁목사":9679,"▁선택할":9680,"▁치솟":9681,"고에":9682,"▁바람이":9683,"▁보도에":9684,"▁유가증권":9685,"▁권한대행":9686,"▁제조업체":9687,"마블":9688,"▁유대":9689,"천억원":9690,"▁입장이":9691,"▁과정에":9692,"광장":9693,"대체":9694,"주차":9695,"▁일하는":9696,"억여":9697,"ran":9698,"세상":9699,"0%)":9700,"▁아키":9701,".23":9702,"었기":9703,"▁화합":9704,"마자":9705,"▁되찾":9706,"사항을":9707,"▁SUV":9708,"발이":9709,"▁레스토":9710,"▁이례":9711,"▁양해":9712,"▁면세점":9713,"▁특유의":9714,"▁구성됐다":9715,"전선":9716,"▁프라":9717,"▁수사에":9718,"직자":9719,"etnews":9720,"▁종종":9721,"▁검사를":9722,"▁죽은":9723,"▁일으키":9724,"RS":9725,"▁배후":9726,"기부":9727,"▁2.5":9728,"소식":9729,"▁않습니다":9730,"▁장점":9731,"▁윤리":9732,"ero":9733,"진단":9734,"기상":9735,"▁장수":9736,"▁윌리엄":9737,"▁추정되는":9738,"생이":9739,"▁몸에":9740,"인수":9741,"▁조건을":9742,"▁재료":9743,"(30":9744,"풍을":9745,"권도":9746,"▁레스토랑":9747,"▁입단":9748,"▁지속될":9749,"▁신뢰를":9750,"▁경찰의":9751,"타임스":9752,"파이낸":9753,"▁박정희":9754,"하더라도":9755,"모델링":9756,"▁다채":9757,"▁조약":9758,"▁금융기관":9759,"▁노벨":9760,"마의":9761,"▁늘어나고":9762,"행동":9763,"▁행동을":9764,"▁기자회견에서":9765,"▁발표할":9766,"▁기준금리":9767,"속에":9768,"▁갈아":9769,"▁열릴":9770,"▁장식":9771,"▁경우에":9772,"▁제공해":9773,"▁발표하고":9774,"▁제공된다":9775,"▁관세":9776,"▁방역":9777,"▁영향이":9778,"▁광주시":9779,"한화":9780,"이었고":9781,"▁높고":9782,"▁가짜":9783,"▁때에는":9784,"만원이다":9785,"심에서":9786,"▁이씨는":9787,"js":9788,"▁프레스":9789,"▁인쇄":9790,"▁워크숍":9791,"▁금리를":9792,"▁끝까지":9793,"리콘":9794,"▁자매":9795,"▁계속해서":9796,"▁생각하고":9797,"▁본선":9798,"산업단지":9799,"▁비례대표":9800,"▁행사에는":9801,"▁규모다":9802,"▁일고":9803,"▁소니":9804,"▁170":9805,"▁방송을":9806,"cu":9807,"▁외식":9808,"▁인턴기자":9809,"▁팔아":9810,"▁인천시":9811,"▁알려졌습니다":9812,"▁대부":9813,"▁스타트업":9814,"교를":9815,"▁간접":9816,"건설이":9817,"▁나타내는":9818,"▁유인":9819,"▁금융위기":9820,"생물":9821,"▁무용":9822,"▁기사를":9823,"▁사실은":9824,"▁무대에":9825,"▁투자가":9826,"▁실시간으로":9827,"LL":9828,"▁들어갔":9829,"▁크지":9830,"▁늘어나는":9831,"▁편이다":9832,"▁95":9833,"천안":9834,"▁스트레스":9835,"▁위원장이":9836,"배당":9837,"▁입국":9838,"Type":9839,"sectionId":9840,"▁김치":9841,"▁파라":9842,"▁장중":9843,"▁한국어":9844,"▁율":9845,"▁미국에":9846,"▁조리":9847,"TC":9848,"자이":9849,"▁1986":9850,"청구":9851,"▁방안도":9852,"▁침입":9853,"차례에":9854,"▁예정이며":9855,"▁조언했다":9856,"▁임직":9857,"▁사건은":9858,"리에서":9859,"▁괜":9860,"▁무효":9861,"통제":9862,"▁제품이다":9863,"산에":9864,"▁안전을":9865,"하늘":9866,"주행":9867,"타르":9868,"▁북핵":9869,"▁묘사":9870,"▁기초자산":9871,"▁대출을":9872,"대회에서":9873,"맥스":9874,"▁해고":9875,"▁개발해":9876,"▁다음을":9877,"탱크":9878,"수정":9879,"▁잠실":9880,"▁기법":9881,"▁자진":9882,".4%)":9883,"▁용의":9884,"▁학원":9885,"▁조현":9886,"플래":9887,"거리를":9888,"▁추출":9889,"▁초등학생":9890,"망이":9891,"특징":9892,".29":9893,"서치":9894,"▁지적이다":9895,"▁지원이":9896,"▁태극":9897,"▁수시":9898,"니스트":9899,"▁사람들에게":9900,"add":9901,"▁지내":9902,"▁원으로":9903,"서부":9904,"▁일본은":9905,"▁그렇지":9906,"▁뇌물":9907,"작은":9908,"▁도덕":9909,"오프":9910,"▁세련":9911,"▁이윤":9912,"▁차가":9913,"▁준비하고":9914,"인기":9915,"례를":9916,"자리에":9917,"리나":9918,"▁사태가":9919,"▁신장":9920,"▁아시아나":9921,"▁김준":9922,"▁젖":9923,"면이":9924,"▁스케":9925,"폴리오":9926,"▁금품을":9927,"교의":9928,"되지만":9929,"▁되도록":9930,"▁찾고":9931,"▁경찰청":9932,"▁부르는":9933,"편이":9934,"▁추진해":9935,"▁그것은":9936,"▁철수":9937,"공을":9938,"▁지나치게":9939,"렉스":9940,"▁업계에":9941,"▁노동자":9942,"▁불린다":9943,"▁공을":9944,"▁콤":9945,"리면":9946,"▁위생":9947,"시쯤":9948,"ID":9949,"▁지식경제":9950,"![":9951,"당국":9952,"스크바":9953,"친구":9954,"▁플로":9955,"▁손안의":9956,"▁조사에서":9957,"하기에":9958,"▁알고보니":9959,"이재":9960,"국민의":9961,"▁밖으로":9962,"도까지":9963,"▁흥행":9964,"▁초청해":9965,"영은":9966,"▁스토리":9967,"▁론칭":9968,"연구원은":9969,"▁국경":9970,"▁수확":9971,"▁재보":9972,"▁싼":9973,"▁엔터테인먼트":9974,"Container":9975,"▁PD":9976,"▁문서":9977,"▁해결을":9978,"▁오페라":9979,"▁주류":9980,"▁편의점":9981,"▁모범":9982,"▁빵":9983,"▁육박":9984,"되거나":9985,"▁동향":9986,"▁형제":9987,"우러":9988,"▁분위기가":9989,"트렌":9990,"이한":9991,"계와":9992,"▁76":9993,"▁간주":9994,"▁손에":9995,"▁현직":9996,"pp":9997,"리우":9998,"▁섬유":9999,"▁좋아하는":10000,"▁부정적":10001,"▁출시를":10002,"되도록":10003,"드라마":10004,"▁재테크":10005,"▁타입":10006,"첨단":10007,"46":10008,"▁벌여":10009,"move":10010,"▁감지":10011,"▁프로그램은":10012,".2%)":10013,"▁모의":10014,"▁자신들의":10015,"물가":10016,"▁선제":10017,"▁피고":10018,"모임":10019,"▁진로":10020,"▁조항":10021,"두환":10022,"▁정세":10023,"서울경제":10024,"자금을":10025,"▁없으며":10026,"▁크림":10027,"▁합의를":10028,"▁멀리":10029,"▁시티":10030,"언스":10031,"\",[":10032,"▁견인":10033,"▁판결을":10034,"▁응용":10035,"에게서":10036,"▁혁":10037,"▁앞세":10038,"▁북구":10039,"▁선거구":10040,"▁트레이":10041,"▁사업으로":10042,"텔레콤은":10043,"레터":10044,"▁만성":10045,"▁부문에서":10046,"▁그해":10047,"▁영유":10048,"▁못한다":10049,"▁아시아경제":10050,"음식":10051,"캐피탈":10052,"▁전반에":10053,"▁뷰티":10054,"규칙":10055,"고등":10056,"▁협력업체":10057,"▁야생":10058,"▁탄소":10059,"플루":10060,"▁바닷":10061,"단위":10062,"▁급격히":10063,"▁저소득층":10064,"hankyung":10065,"▁치킨":10066,"▁포르투갈":10067,"70)":10068,"▁보조금":10069,"▁#":10070,"▁88":10071,"▁즐겨":10072,"▁투어":10073,"▁김선":10074,"▁녹음":10075,"▁기업인":10076,"▁피부를":10077,"곳이":10078,"▁하나는":10079,"▁대표적":10080,"시트":10081,"유출":10082,"~20":10083,"▁지역구":10084,"파이낸셜뉴스":10085,"지수가":10086,"마가":10087,"▁트럭":10088,".1%)":10089,"▁연준":10090,"▁이인":10091,"청사에서":10092,"소연":10093,"▁사용된다":10094,"▁마주":10095,"▁여름철":10096,"▁반영해":10097,"▁얘기다":10098,"심은":10099,"▁척추":10100,"▁문제의":10101,"팀의":10102,"▁아무리":10103,"▁지사":10104,"▁투입해":10105,"▁모금":10106,"▁신고를":10107,"▁논의가":10108,"▁일주일":10109,"차원":10110,"▁들어선":10111,"▁재개발":10112,"▁○":10113,"▁고전":10114,"▁선진국":10115,"▁다르게":10116,"▁바람에":10117,"]\"":10118,"구간":10119,"▁들어갈":10120,"▁상처":10121,"▁이송":10122,"▁ELS":10123,"▁(02)":10124,"▁예외":10125,"▁설치해":10126,"▁실시한다고":10127,"처벌":10128,"▁이통":10129,"▁하천":10130,"▁고객들이":10131,"리츠":10132,"▁폭로":10133,"▁화제가":10134,"오카":10135,"▁벌어진":10136,"▁소집":10137,"▁rights":10138,"나미":10139,"▁올리는":10140,"ind":10141,"상공회의":10142,"▁유명하다":10143,"바이트":10144,"▁GDP":10145,"권으로":10146,"▁남긴":10147,"▁않을까":10148,"과도":10149,"▁곳을":10150,"▁특성을":10151,"▁스파":10152,"▁토요일":10153,"▁오프라인":10154,"▁정진":10155,"▁소상공":10156,"▁정수":10157,"▁노트북":10158,"▁이어가고":10159,"네트":10160,"오염":10161,"▁반기":10162,"작으로":10163,"▁피의자":10164,"served":10165,"파라":10166,"▁자료에":10167,"베리":10168,"▁보러":10169,"▁건강을":10170,"▁경상북도":10171,"래곤":10172,"▁포함돼":10173,".6%)":10174,"▁해마다":10175,"GM":10176,"현장영상":10177,".$('":10178,"▁크리스마스":10179,"▁임의":10180,"▁공모전":10181,"사원":10182,"▁진실":10183,"재료":10184,"▁중계":10185,"▁크로":10186,"▁일종의":10187,"▁간담회를":10188,"▁시행령":10189,"▁스카":10190,"▁0.1":10191,"룸버그":10192,"▁뭔":10193,"▁찾았다":10194,"만원대":10195,"▁reserved":10196,"일러":10197,"▁밀어":10198,"CB":10199,"▁요구하고":10200,"▁상습":10201,"▁책정":10202,"▁릴":10203,"포스":10204,"했었다":10205,"▁보여주고":10206,"By":10207,"까지도":10208,"특징주":10209,"▁개최된":10210,"▁인텔":10211,"EX":10212,"▁사유":10213,"▁쌍용":10214,"▁서비스는":10215,"▁밀양":10216,"▁텔레비전":10217,"작전":10218,"▁연일":10219,"▁장난":10220,"티스트":10221,"▁심지어":10222,"▁체납":10223,"▁헬스":10224,"▁사물":10225,"가인":10226,"자회담":10227,"▁보고서를":10228,"내역":10229,"▁냄새":10230,"▁수익성":10231,"골프":10232,"이제":10233,"▁겪는":10234,"▁리콜":10235,"년으로":10236,"자로서":10237,"▁치매":10238,"41":10239,"▁기존에":10240,"▁보지":10241,"외선":10242,"재해":10243,"▁연세대":10244,"동과":10245,"투쟁":10246,"지나":10247,"▁잡은":10248,".7%)":10249,"-8":10250,"▁기업으로":10251,"▁부사장은":10252,"▁곁":10253,"보육":10254,"▁간단한":10255,"▁산업의":10256,"가리":10257,"▁실망":10258,"▁국토해양":10259,"▁않았던":10260,"▁홀로":10261,"브로":10262,"▁휠":10263,"인프라":10264,"▁훌륭":10265,"▁아들이":10266,"리더":10267,"▁기념촬영을":10268,"▁애초":10269,"▁경제성장":10270,"▁브랜드를":10271,"▁것이라":10272,"우가":10273,"▁설립한":10274,"일만에":10275,".8%)":10276,"▁이다":10277,"▁지름길":10278,"결정":10279,"▁머리를":10280,"▁반환":10281,"▁첫째":10282,"▁겨울철":10283,"부상":10284,"▁매체":10285,"▁네티즌들은":10286,"▁기업과":10287,"▁올해로":10288,"▁이뤄지지":10289,"▁강화할":10290,"포항":10291,"▁돕기":10292,"▁상륙":10293,"▁실정":10294,"▁해운대":10295,"▁서비스가":10296,"▁동서":10297,"▁크레":10298,"▁세계적":10299,"ea":10300,"▁변화에":10301,"▁자금이":10302,"onga":10303,"▁검찰의":10304,"▁유병":10305,"중앙회":10306,"▁단일화":10307,"매김":10308,"▁재현":10309,"▁청문회":10310,"ress":10311,"▁선거에서":10312,"▁협업":10313,"▁fn":10314,"렉션":10315,"변호":10316,"징금":10317,"▁더블":10318,"대장":10319,"향후":10320,"부족":10321,"▁구성된다":10322,"김정":10323,"▁영업익":10324,"▁주장하고":10325,"▁제임스":10326,"▁알바":10327,"체계를":10328,"맞이":10329,"시설이":10330,"▁강화하는":10331,"그동안":10332,"▁무조건":10333,"▁제기한":10334,"편을":10335,"\"\"[":10336,"▁수치다":10337,"▁이어져":10338,"▁이어진":10339,"▁업무협약":10340,"2'":10341,"케미칼":10342,"근무":10343,"▁CNBC":10344,"▁내놨다":10345,"▁황교안":10346,"▁뉴질랜드":10347,"▁산불":10348,"월과":10349,"혜택":10350,"▁69":10351,"▁다룬":10352,"▁진학":10353,"▁잭":10354,"리안":10355,"김영":10356,"CI":10357,"대원":10358,"▁호응을":10359,"따라":10360,"▁관해":10361,"▁중의":10362,"▁한국이":10363,"▁한국경제":10364,"▁경제부":10365,"▁신차":10366,"▁계획입니다":10367,"시간이":10368,"57":10369,"▁배럴":10370,"▁범위":10371,"▁일본이":10372,"즈가":10373,"▁되는데":10374,"▁손실을":10375,"▁하나가":10376,"▁과일":10377,"▁단말기":10378,"이었으나":10379,"▁작품은":10380,"▁프라이":10381,"▁앞장서":10382,"결혼":10383,"▁블록":10384,"▁성공을":10385,"소설":10386,"▁해산":10387,"▁생산하는":10388,"▁나서는":10389,"▁유럽의":10390,"▁실효":10391,"▁출하":10392,"▁사무실":10393,"성형":10394,"▁솔로":10395,"기세포":10396,"▁걸린":10397,"ontent":10398,"동맹":10399,"멘텀":10400,"▁횟":10401,"▁골목":10402,"한경":10403,"스포츠는":10404,"▁1985":10405,"▁챙긴":10406,"▁드림":10407,"일자리":10408,"▁배경으로":10409,"nter":10410,"▁세금을":10411,"씨에":10412,"▁훈련을":10413,"▁수의":10414,"폴리":10415,"▁담당하는":10416,"▁물이":10417,"▁시작됐다":10418,"49":10419,"▁벨기에":10420,"었다는":10421,"▁날씨가":10422,"▁지금도":10423,"Ch":10424,"▁구성돼":10425,"▁확인했다":10426,"원인":10427,"▁그것이":10428,"▁번호":10429,"▁후보와":10430,"▁팩":10431,"PI":10432,"▁일본에":10433,"▁럭":10434,"▁나가는":10435,"▁대국민":10436,"퍼니":10437,"▁에코":10438,"▁성공적인":10439,"▁선두":10440,"그라":10441,"담보대출":10442,"▁전국적으로":10443,"▁메이저":10444,"edaily":10445,"▁유포":10446,"▁앱을":10447,"▁확보를":10448,"▁자리매김":10449,"견을":10450,"▁이내에":10451,"▁공식적으로":10452,"▁안성":10453,"▁여부에":10454,"반을":10455,"▁모듈":10456,"▁시가총액":10457,"▁어우러":10458,"받지":10459,"▁감각":10460,"▁열대":10461,"▁근대":10462,"현실":10463,"▁전국에서":10464,"▁훔친":10465,"▁걸친":10466,"▁세제":10467,"▁속도가":10468,"▁일각에서는":10469,"▁회사를":10470,"▁남한":10471,"지역에서":10472,"▁current":10473,"났고":10474,"인식":10475,"콜릿":10476,"▁방식의":10477,"▁신도":10478,"El":10479,"▁대성":10480,"청에서":10481,"▁출연해":10482,"아는":10483,"▁갈라":10484,"▁집합":10485,"Man":10486,"전철":10487,"▁이완":10488,"▁내리고":10489,"▁잡았다":10490,"위해":10491,"▁손해배상":10492,"▁위의":10493,"슬러":10494,"▁일간":10495,"▁버튼":10496,"guide":10497,"▁금융위":10498,"심리":10499,"▁얼굴을":10500,"iv":10501,"▁뒤늦게":10502,"▁생기는":10503,"▁갔다":10504,"SS":10505,"설비":10506,"되었으나":10507,"▁러시아의":10508,"▁구매할":10509,"▁거주하는":10510,"화할":10511,"▁와서":10512,"르타":10513,"파워":10514,"▁상황은":10515,"▁부딪":10516,"▁웨딩":10517,"▁1,000":10518,"드와":10519,"▁0.2":10520,"▁충격을":10521,"신탁":10522,"▁빠져나":10523,"▁심상":10524,"▁작업이":10525,"▁인테리어":10526,"고교":10527,"▁게임의":10528,"▁조금씩":10529,"▁누릴":10530,"토지":10531,"▁수를":10532,"러시아":10533,"▁제기됐다":10534,"도급":10535,"▁가려":10536,"▁4%":10537,"▁무리":10538,"▁삼아":10539,"▁원산":10540,"▁양해각":10541,"▁前":10542,"소통":10543,"등의":10544,"술을":10545,"▁불참":10546,"▁불을":10547,"▁캠페인을":10548,"result":10549,"▁합리적인":10550,"▁책은":10551,"▁에서":10552,"외국":10553,"▁갈등이":10554,"▁됐습니다":10555,"▁서대문":10556,"▁증시가":10557,"▁영화이다":10558,"▁우대":10559,"믹스":10560,"▁예보":10561,"hide":10562,"차관":10563,"▁가볍":10564,"▁통치":10565,"행위를":10566,"과를":10567,"점유":10568,"내셔널":10569,"2015":10570,"다니":10571,"▁진압":10572,"▁용역":10573,"47":10574,"▁한반":10575,"기간은":10576,"▁있으니":10577,"▁뒤로":10578,"▁몰래":10579,"▁1200":10580,"▁장거리":10581,"가요":10582,"▁1984":10583,"▁줄이":10584,"▁국가가":10585,"▁정상회의":10586,"▁제기되고":10587,"인구":10588,"북부":10589,"▁받으며":10590,"▁보내는":10591,"▁프란":10592,"▁바랍니다":10593,"▁주민들은":10594,"▁트랙":10595,"▁최고경영자":10596,"FO":10597,"Segye":10598,"▁지상파":10599,"▁파생":10600,"▁찍은":10601,"▁사망한":10602,"▁기온은":10603,"등이":10604,"연예":10605,"메일로":10606,"▁대학의":10607,"네스":10608,"상위":10609,"라리":10610,"▁대가":10611,"터미널":10612,"▁올해부터":10613,"▁컨소시엄":10614,"▁78":10615,"▁경유":10616,"▁임용":10617,"▁차익":10618,".9%)":10619,"름을":10620,"▁지적도":10621,"▁아이돌":10622,"▁국민들의":10623,"강화":10624,"▁정작":10625,"즈니":10626,"▁같아":10627,"DN":10628,"기관인":10629,"▁뜻이":10630,"▁전통시장":10631,"▁900":10632,"▁군인":10633,"이었습니다":10634,"▁계획이":10635,"▁같습니다":10636,"충북":10637,"출산":10638,"프가":10639,"▁발표를":10640,"목이":10641,"라면서":10642,"졌다고":10643,"▁아니지만":10644,"▁겉":10645,"▁오래된":10646,"▁해당한다":10647,"▁바꾼":10648,"▁일부는":10649,"II":10650,"▁요구에":10651,"▁술을":10652,"▁임진":10653,"상호":10654,"▁노하우를":10655,"▁전신":10656,"▁능력이":10657,"▁노력이":10658,"60)":10659,"▁지붕":10660,"▁어른":10661,"▁눈물":10662,"금융지주":10663,"▁다하겠다":10664,"▁리모델링":10665,"청과":10666,"▁후임":10667,"▁카카오톡":10668,"▁성적을":10669,"▁줄이는":10670,"▁박람회":10671,"버드":10672,"실히":10673,"▁막대한":10674,"계정":10675,"블랙":10676,"▁The":10677,"▁합의했다":10678,"데다":10679,"Info":10680,"▁올리고":10681,"62":10682,"▁외국인이":10683,"성군":10684,"▁1945":10685,"▁미흡":10686,"▁불만을":10687,"생의":10688,"▁후배":10689,"모든":10690,"▁쿠키뉴스":10691,"분부터":10692,"▁상담을":10693,"취를":10694,"▁낚":10695,"토리":10696,"어스":10697,"▁물품":10698,"▁전교":10699,"연이":10700,"▁5,":10701,"▁이상인":10702,"지방경찰청":10703,"회원":10704,"▁꿈꾸":10705,"▁형식으로":10706,"▁발병":10707,"센티브":10708,"바닥":10709,"▁넘어서":10710,"라이트":10711,"▁당시의":10712,"▁지지율":10713,"▁이사장은":10714,"▁입장에서":10715,"▁사임":10716,"▁롱":10717,"▁집중적으로":10718,"▁타결":10719,"절차":10720,"▁오르는":10721,"문에서":10722,"시다":10723,"▁감안해":10724,"▁성장할":10725,"저가":10726,"▁나흘":10727,"▁박재":10728,"보다도":10729,"▁선호하는":10730,"▁경찰관":10731,"omain":10732,"▁사람에게":10733,"▁강점":10734,"▁불황":10735,"▁이용하여":10736,"▁네오":10737,"▁청주시":10738,"▁쳐":10739,"▁비싸":10740,"조작":10741,"▁상주":10742,"▁즐기":10743,"메시":10744,"...”":10745,"▁분석해":10746,"모집":10747,"▁적용한":10748,"▁*":10749,"▁시카":10750,"얀마":10751,"터는":10752,"▁부자":10753,"▁뉴스레터":10754,"(17":10755,"마토":10756,"객이":10757,"그러나":10758,"▁에어컨":10759,"▁조이뉴스":10760,"▁아웃도어":10761,"님은":10762,"▁참여하고":10763,"할인":10764,"▁금품":10765,"▁아르헨티나":10766,"▁증가하는":10767,"▁모친상":10768,"▁깎":10769,"▁불편을":10770,"▁엿":10771,"▁벡":10772,"고와":10773,"2012":10774,"우수":10775,"▁논의할":10776,"▁중국을":10777,"국제공항":10778,"log":10779,"▁옷을":10780,"맛있는":10781,"회사의":10782,"▁느끼는":10783,"오리":10784,"년여":10785,"종과":10786,"아산":10787,"▁내리는":10788,"파스":10789,"arch":10790,"▁법무부":10791,"▁컨테이너":10792,"포를":10793,"▁넘치는":10794,"▁소비자가":10795,"벨트":10796,"시킨다":10797,"▁아나운":10798,"▁랭":10799,"▁밝은":10800,"▁DNA":10801,"▁국민을":10802,"▁노동당":10803,"▁당연히":10804,"▁현대차는":10805,"▁정보가":10806,"▁발송":10807,"십니까":10808,"▁성능을":10809,"▁세이":10810,"▁땀":10811,"▁후보자는":10812,"라노":10813,"▁점에":10814,"▁복잡한":10815,"▁유연":10816,"▁공화당":10817,"▁추진한다":10818,"공식":10819,"\",\"[":10820,"▁사안":10821,"지엄":10822,"에어":10823,"▁월급":10824,"▁유진":10825,"▁상시":10826,"▁짝":10827,"▁정한":10828,"St":10829,"▁크루즈":10830,"해요":10831,"▁유관":10832,":30":10833,"▁다카":10834,"▁장르":10835,"▁날아":10836,"▁베를린":10837,"▁싸움":10838,"아이닷컴":10839,"▁가족이":10840,"▁행사에서":10841,"▁●":10842,"▁보강":10843,"._":10844,"42":10845,"▁가뭄":10846,"▁맥주":10847,"▁사모":10848,"▁확보한":10849,"▁무력":10850,"▁대행":10851,"▁지니":10852,"▁위치를":10853,"▁확인한":10854,"살이":10855,"기존":10856,"▁나오지":10857,"▁노원":10858,"▁권리를":10859,"▁학생들에게":10860,"세권":10861,"MOU":10862,"▁빨라":10863,"▁유튜브":10864,"▁얇":10865,"▁공화국":10866,"▁주관하는":10867,"▁As":10868,"▁형식":10869,"▁중복":10870,"▁가면":10871,"▁컵":10872,"▁위장":10873,"▁시간은":10874,"▁강수":10875,"▁독서":10876,"▁표창":10877,"민이":10878,"장학":10879,"▁창설":10880,"진구":10881,"▁원격":10882,"▁범행을":10883,"▁생길":10884,"동에서":10885,"turn":10886,"▁애플의":10887,"▁});":10888,"▁전라남도":10889,"▁이루고":10890,"▁71":10891,"▁승격":10892,"▁고수익":10893,"▁관악":10894,"▁광산":10895,"해가":10896,"전자가":10897,"세서":10898,"▁치아":10899,"▁여파로":10900,"2016":10901,"▁유학":10902,"드림":10903,"▁가담":10904,"▁잎":10905,"▁뜻이다":10906,"▁인삼":10907,"▁소재로":10908,"one":10909,"▁믿고":10910,"보유":10911,"▁내야":10912,"▁수산":10913,"CO":10914,"▁순수":10915,"▁인증을":10916,"▁커질":10917,"▁있었다고":10918,"▁프로젝트를":10919,"유플러":10920,"▁고려대":10921,"사상":10922,"년보다":10923,"▁의학":10924,"▁이순":10925,"56":10926,"▁쉽고":10927,"▁지원에":10928,"▁나타날":10929,"▁필요성을":10930,"과거":10931,"오스":10932,"hn":10933,"▁클리핑":10934,"▁랩":10935,"특위":10936,"파를":10937,"▁쌓아":10938,"▁뛰어넘":10939,"58":10940,"~9":10941,"동해":10942,"모가":10943,"▁그래도":10944,"명령":10945,"▁광명":10946,"▁때문으로":10947,"▁컸다":10948,"`▶":10949,"▁때가":10950,"▁선수가":10951,"▁광양":10952,"▁수령":10953,"▁어디서나":10954,"▁모자":10955,"▁근거로":10956,"▁마련할":10957,"▁정동":10958,"▁통행":10959,"관계가":10960,"▁인양":10961,"▁연예ᆞ":10962,"▁내장":10963,"▁법조":10964,"▁가족과":10965,"▁\"<":10966,"방에서":10967,"▁게임메일로":10968,"▁연예ᆞ스포츠는":10969,"렬한":10970,"▁공기업":10971,"▁황제":10972,"▁상태가":10973,"▁승강장":10974,"▁73":10975,"개정":10976,"▁결론을":10977,"선택":10978,"▁방안이":10979,"▁밀집":10980,"▁언론에":10981,"▁득표":10982,"하루":10983,"▁이게":10984,"▁손학규":10985,"▁블룸버그":10986,"▁경신":10987,"▁육상":10988,"▁규제를":10989,"▁삼척":10990,"▁사단":10991,"▁오르고":10992,"▁제국의":10993,":1":10994,"▁달러를":10995,"치면서":10996,"▁승인을":10997,"모레":10998,"▁나타나고":10999,"▁원에":11000,"▁매장에서":11001,"강릉":11002,"▁return":11003,"▁올해도":11004,"▁나노":11005,"▁설명하고":11006,"▁프로그램이다":11007,"▁창당":11008,"밀히":11009,"▁통영":11010,"▁참가해":11011,"▁통하여":11012,"▁신작":11013,"▁중독":11014,"▁기록했다고":11015,"▁7000":11016,"▁대회에서":11017,"▁구속영장을":11018,"오롱":11019,"▁물에":11020,"스톤":11021,"홀딩스":11022,"▁8000":11023,"스럽다":11024,"▁헤럴드":11025,"관리를":11026,"▁종전":11027,"권에서":11028,"폭탄":11029,"되던":11030,"날씨":11031,"▁아끼":11032,"▁연계해":11033,"만원이":11034,"비행":11035,"은행과":11036,"▁기대감이":11037,"▁조사결과":11038,"군사":11039,"과대학":11040,"스팅":11041,"탄소":11042,"CJ":11043,"▁나스":11044,"▁행보":11045,"문화예술":11046,"▁회전":11047,"▁가격으로":11048,"시고":11049,"▁부합":11050,"기에는":11051,"▁상의":11052,"▁저하":11053,"베이터":11054,"▁지능":11055,"채용":11056,"▁가맹점":11057,"길에":11058,"▁김문":11059,"▁소리를":11060,"50)":11061,"▁주변의":11062,"▁나쁜":11063,"▁어렵다는":11064,"▁뜻한다":11065,"▁성공투자의":11066,"▁않았다고":11067,"▁지혜":11068,"ager":11069,"▁피아노":11070,"▁갱":11071,"▁김유":11072,"▁이야기가":11073,"▁선수로":11074,"52":11075,"동으로":11076,"퍼시픽":11077,"▁곳곳에서":11078,"▁가능성에":11079,"▁아니라는":11080,"호기":11081,"▁비전":11082,"▁유치원":11083,"▁역사상":11084,"▁사회에":11085,"▁린":11086,"▁핀란드":11087,"▁대중교통":11088,"▁접할":11089,"▁앞당":11090,"▁유죄":11091,"▁중에서도":11092,"지부":11093,"▁발족":11094,"▁분석을":11095,"교실":11096,"▁St":11097,"▁로비":11098,"콘서트":11099,"파이낸스":11100,"▁인력을":11101,"▁발레":11102,"제재":11103,"▁자아":11104,"▁인구가":11105,"▁구독하세요":11106,"셀러":11107,"(13":11108,"▁알레":11109,"▁털어":11110,"처장":11111,"▁학생이":11112,"▁대항":11113,"▁우유":11114,"▁수천":11115,"▁연말까지":11116,"▁김광":11117,"▁잃은":11118,"부진":11119,"함께":11120,"▁학교에":11121,"DC":11122,"▁한인":11123,"edia":11124,"▁서울중앙지법":11125,"상업":11126,"▁시너지":11127,"제도를":11128,"▁수준인":11129,"▁개정안을":11130,"감도":11131,"▁이르기":11132,"▁출신인":11133,"▁꾸준한":11134,"▁비판을":11135,"▁쓰레기":11136,"▁김명":11137,"▁유동성":11138,"설에":11139,"민주화":11140,"RI":11141,"▁’":11142,"▁해양수산":11143,"▁간에":11144,"▁브로":11145,"▁청렴":11146,"개입":11147,"▁뭉":11148,"▁공급하는":11149,"호에":11150,"▁여행을":11151,"▁않았습니다":11152,"▁출장":11153,"았는데":11154,"▁총선에서":11155,"자이다":11156,"▁나라의":11157,"▁출마를":11158,"▁직접적인":11159,"체와":11160,"눈에":11161,"EFA":11162,"▁시세":11163,"▁외면":11164,"▁NHN":11165,"▁참배":11166,"ure":11167,"▁귀족":11168,"▁동반성장":11169,"퇴근":11170,"▁대여":11171,"으로서의":11172,"포터":11173,"▁자리잡":11174,"▁종류의":11175,"▁병원에서":11176,"▁영등포":11177,"▁복용":11178,"▁곰":11179,"▁김주":11180,"▁위조":11181,"▁토론회":11182,"▁동행":11183,"▁동영상을":11184,"▁면적":11185,"▁서귀포":11186,"▁마이크로소프트":11187,"▁활동하고":11188,"원자력":11189,"해수":11190,"▁게이트":11191,"▁기반의":11192,"테이":11193,"HO":11194,"▁이루어진":11195,"▁나를":11196,"▁총리의":11197,"곡을":11198,"▁대부분은":11199,"▁알렉산":11200,"▁경찰과":11201,"▁이루어져":11202,"▁진행해":11203,"▁신화":11204,"▁몫":11205,"방문":11206,"▁후손":11207,"▁법제":11208,"▁사각":11209,"궐선거":11210,"▁촉구하는":11211,"▁수신":11212,"▁성장률":11213,"▁집행유예":11214,"▁학생들을":11215,"▁장마":11216,"▁괜찮":11217,"창출":11218,"▁퇴진":11219,"레일리아":11220,"▁메이크업":11221,"▁예상보다":11222,"▁예전":11223,"ialization":11224,"▁닿":11225,"▁안타까":11226,"▁공조":11227,"▁경제정보":11228,"메르스":11229,"▁신도시":11230,"톡톡":11231,"▁보복":11232,"▁마이클":11233,"▁진행되며":11234,"▁포괄":11235,"▁업계의":11236,"▁점수를":11237,"▁플러스":11238,"▁취하고":11239,"▁해결할":11240,"▁말은":11241,"▁약세":11242,"▁거리에":11243,"▁펼쳐진다":11244,"▁가축":11245,"본을":11246,"전수":11247,"2011":11248,"▁웃돌":11249,"▁역임했다":11250,"더스":11251,"▁실시할":11252,"▁에피":11253,"▁포트폴리오":11254,"▁상봉":11255,"1%)":11256,"▁메모리":11257,"▁축산":11258,"▁모인":11259,"▁챙겨":11260,"▁추경":11261,"▁레이저":11262,"▁보험료":11263,"▁선거에":11264,"후의":11265,"▁'1":11266,"▁전임":11267,"▁김혜":11268,"기관이":11269,"▁주문했다":11270,"어지고":11271,"▁국토부":11272,"수학":11273,"▁받았고":11274,"serialization":11275,"▁아시안":11276,"심으로":11277,"▁차이를":11278,"경비":11279,"▁수차례":11280,"▁1982":11281,"▁일요일":11282,"프의":11283,"▁하위":11284,"▁평가다":11285,"▁전했습니다":11286,"부인":11287,"▁명백":11288,"mg":11289,"▁드는":11290,"./":11291,"그런":11292,"▁지은":11293,"ni":11294,"▁중개":11295,"▁전체를":11296,"▁장남":11297,"▁확진":11298,"▁여성은":11299,"▁헌재":11300,"▁메가":11301,"▁정책이":11302,"▁골든":11303,"활성화":11304,"2013":11305,"▁사격":11306,"▁장기간":11307,"막을":11308,"▁결정했다고":11309,"▁있으므로":11310,"▁장학금":11311,"▁연재":11312,"모씨":11313,"..\"\"":11314,"▁우호":11315,"▁총재는":11316,"▁전분기":11317,"사업이":11318,"▁당국이":11319,"대리":11320,"보상":11321,"▁것보다":11322,"▁졸업하고":11323,"쿠키":11324,"▁가계부채":11325,"▁가난":11326,"▁그럼에도":11327,"는가":11328,"알파":11329,"▁당원":11330,"▁것인":11331,"▁맞춘":11332,"▁꼴":11333,"▁전반적인":11334,"좋은":11335,"▁요구한":11336,"코스닥":11337,"되는데":11338,"▁1983":11339,"구성":11340,"시대의":11341,"▁이메일":11342,"▁급속":11343,"▁기금":11344,"▁기간을":11345,"가격은":11346,"▁얼음":11347,"▁들어서는":11348,"본부장은":11349,"▁II":11350,"▁상관없이":11351,"별한":11352,"▁AFP":11353,"▁광고를":11354,"▁사랑하는":11355,"▁인센티브":11356,"▁국정감":11357,"▁기자의":11358,"▁이색":11359,"height":11360,"▁직면":11361,"▁신사":11362,"▁콜라":11363,"되었던":11364,"▁350":11365,"▁프로모션":11366,"▁잡지":11367,"ee":11368,"▁안된다":11369,"▁지급하는":11370,"풀이":11371,"▁도주":11372,"▁돼지":11373,"▁중요성을":11374,"▁박사는":11375,"▁일괄":11376,"▁거래가":11377,"▁79":11378,"▁관련이":11379,"▁모두발언":11380,"프랑스":11381,"▁각각의":11382,"되어야":11383,"▁상품은":11384,"▁경남도":11385,"▁의원들은":11386,"▁많지":11387,"▁화가":11388,"▁고객들의":11389,"국토":11390,"무라":11391,"▁82":11392,"▁정선":11393,"▁오스":11394,"▁동남아":11395,"▁사회주의":11396,"▁제목의":11397,"였는데":11398,"▁상인":11399,"▁항암":11400,"▁시기를":11401,"▁어려움":11402,"▁해방":11403,"▁팀이":11404,"▁달라고":11405,"위원장을":11406,"▁구멍":11407,"플레이션":11408,"아프리카":11409,"정기":11410,"테스트":11411,"▁가벼운":11412,"물류":11413,"▁동화":11414,"▁사육":11415,"▁중형":11416,"과제":11417,"드에":11418,"해져":11419,"▁가끔":11420,"진출":11421,"모바일웹":11422,"▁지급한다":11423,"▁옆에":11424,"▁드러냈다":11425,"경원":11426,"▁놀라":11427,"공유":11428,"▁최경환":11429,"입찰":11430,"▁공고":11431,"▁영구":11432,"ance":11433,"▁뿐이다":11434,"▁유세":11435,"미의":11436,"▁포함됐다":11437,"▁목표주":11438,"▁선배":11439,"캠퍼스":11440,"상장":11441,"▁발견됐다":11442,"▁프로그램이":11443,"sk":11444,"▁아름다":11445,"▁확보하고":11446,"지식":11447,"화될":11448,"▁0.3":11449,"▁올라가":11450,"▁자칫":11451,"영어":11452,"치와":11453,"기업인":11454,"▁서울과":11455,"▁정도다":11456,"▁세일":11457,"▁제이":11458,"▁위에서":11459,"로와":11460,"▁권한을":11461,"▁속초":11462,"모의":11463,"▁男":11464,"▁단원":11465,"▁대통령에게":11466,"▁포도":11467,"만원에서":11468,"문화재단":11469,"▁인공지능":11470,"▁카를":11471,"국방":11472,"▁경상남도":11473,"▁국왕":11474,"▁남겨":11475,"▁속도로":11476,"sports":11477,"▁약속했다":11478,"▁아이디어를":11479,"▁중립":11480,"itle":11481,"▁유산":11482,"▁81":11483,"▁교수의":11484,"▁일대에서":11485,"▁문화체육관광부":11486,"▁청탁":11487,"▁에드":11488,"▁안정을":11489,"사한":11490,"▁거세":11491,"ler":11492,"▁관리하는":11493,"▁자국":11494,"▁보내고":11495,"▁돼야":11496,"▁색깔":11497,"▁원가":11498,"소방서":11499,"▁지음":11500,"▁자유무역":11501,"팀장은":11502,"진핑":11503,"▁보편":11504,"▁제기했다":11505,"영수":11506,"▁올릴":11507,"▁도망":11508,"▁항공사":11509,"소녀":11510,"▁손쉽게":11511,"▁등재":11512,"▁사건으로":11513,"▁팀의":11514,"▁정의당":11515,"▁추구하는":11516,"▁개그":11517,"▁차트":11518,"▁도입을":11519,"전북":11520,"▁상정":11521,"없다":11522,"터가":11523,"파는":11524,"▁조짐":11525,"▁아이가":11526,"BI":11527,"도르":11528,"키니":11529,"▁아닙":11530,"▁이념":11531,"▁파주":11532,"▁지도부":11533,"센터에":11534,"업체의":11535,"▁김창":11536,"조원을":11537,"씨소프트":11538,"▁전쟁을":11539,"▁어려움이":11540,"▁규정하고":11541,"감에":11542,"▁개발하고":11543,"안군":11544,"▁애널리스트는":11545,"▁1979":11546,"교과서":11547,"가운데":11548,"▁부양":11549,"들었다":11550,"▁대목":11551,"최순실":11552,"▁시민의":11553,"▁담았다":11554,"엔지니어링":11555,"▁진행한다고":11556,"▁이벤트는":11557,"바라":11558,"▁일으킨":11559,"▁휘발":11560,"두산":11561,"▁보건복지부":11562,"▁준수":11563,"▁언급했다":11564,"▁외신":11565,"이라고도":11566,"감시":11567,"업자":11568,"▁소비자들이":11569,"20)":11570,"ph":11571,"▁체류":11572,"▁봉사활동":11573,"▁중소기업의":11574,"▁랜드":11575,"▁꿀":11576,"▁서양":11577,"▁현대백화점":11578,"습을":11579,"▁모스크바":11580,"블리":11581,"비즈":11582,"▁내년도":11583,"한미":11584,"▁속의":11585,"▁대표로":11586,"▁통합진보당":11587,"▁연초":11588,"▁증인":11589,"81":11590,"길래":11591,"▁사용하지":11592,"CNBC":11593,"▁팀장은":11594,"분으로":11595,"▁원정":11596,"▁재고":11597,"비중":11598,"▁떠난":11599,"▁태백":11600,"OD":11601,"▁MC":11602,"▁타당":11603,"렸다고":11604,"▁정치인":11605,"▁한진해운":11606,"▁신발":11607,"▁설명회":11608,"▁규명":11609,"사업으로":11610,"부고":11611,"▁미뤄":11612,"▁일에":11613,"센터가":11614,"▁UEFA":11615,"▁마음에":11616,"▁모양의":11617,"▁말할":11618,"만명이":11619,"▁놀이":11620,"▁결정에":11621,"▁하거나":11622,"▁외국인은":11623,"시스코":11624,"▁업체는":11625,"▁이원":11626,"▁쓰이는":11627,"▁국민들이":11628,"▁끊임없이":11629,"▁의하여":11630,"Title":11631,"▁파손":11632,"▁선보여":11633,"우며":11634,"▁수료":11635,"▁의원들의":11636,"▁예수":11637,"▁의해서":11638,"PP":11639,"▁여유":11640,"2010":11641,"▁과세":11642,"▁흥미":11643,"지원을":11644,"노스":11645,"▁혼합":11646,"로나":11647,"층에서":11648,"▁신앙":11649,"밸리":11650,"악한":11651,"작품":11652,"시에서":11653,"문화를":11654,"증후군":11655,"국정":11656,"▁감독의":11657,"▁컨트롤":11658,"▁이진":11659,"▁활발한":11660,"▁대통령에":11661,"신저":11662,"타는":11663,"▁기간이":11664,"▁신약":11665,"list":11666,"▁세계의":11667,"변경":11668,"려야":11669,"▁비준":11670,"▁향상을":11671,"들목":11672,"네스코":11673,"▁민주화":11674,"▁수상한":11675,"AD":11676,"▁붙어":11677,"▁간다":11678,"▁올해의":11679,"▁강조했습니다":11680,"▁포지":11681,"▁위안화":11682,"▁비록":11683,"▁할아버":11684,"파업":11685,"▁분들이":11686,"▁연구원":11687,"▁조직을":11688,"▁나누는":11689,"하였는데":11690,"테일":11691,"▁연구소":11692,"▁인용해":11693,"▁신인":11694,"▁물량이":11695,"▁사태를":11696,"▁알리고":11697,"프란":11698,"▁자체를":11699,"▁파문":11700,"getEl":11701,"artgetEl":11702,"어디":11703,"재난":11704,"백을":11705,"▁86":11706,"▁핸드":11707,"▁연예인":11708,"경향포토":11709,"당국이":11710,"만명을":11711,"▁찾지":11712,"▁가이드라인":11713,"MD":11714,"명에서":11715,"▁짚":11716,"서울병원":11717,"배에":11718,"▁반영한":11719,"▁반응이":11720,"▁칠레":11721,"▁줄이기":11722,"사히":11723,"▁고객들에게":11724,"▁한계":11725,"▁이틀간":11726,"Manager":11727,"최대":11728,"저축":11729,"야말로":11730,"지마":11731,"▁부가":11732,"▁팀을":11733,"▁비교하면":11734,"▁아래로":11735,"▁유리한":11736,"▁대구시":11737,"▁맑은":11738,"동욱":11739,"▁준비하는":11740,"▁제조사":11741,"▁결심":11742,"▁중시":11743,"▁깃":11744,"위인":11745,"▁도출":11746,"▁부상을":11747,"다만":11748,"택시":11749,"▁유지하는":11750,"▁보행":11751,"나라의":11752,"▁꾀":11753,"▁후에도":11754,"ize":11755,"설명회":11756,"▁부의":11757,"▁파악하고":11758,"▁섹시":11759,"▁편의를":11760,"▁그들이":11761,"▁보다는":11762,"북구":11763,"▁금감원":11764,"수리":11765,"----------------":11766,"▁루이":11767,"▁석탄":11768,"▁바깥":11769,"▁전철":11770,"▁충주":11771,"둥이":11772,"▁운영할":11773,"▁노조는":11774,"고리":11775,"▁미치지":11776,"▁Ch":11777,"▁급식":11778,"억원에서":11779,"▁윈도우":11780,"코올":11781,"▁영향력을":11782,"▁선거를":11783,"▁이번엔":11784,"\"\"◆":11785,"▁조류":11786,"동은":11787,"▁메디":11788,"▁선정했다":11789,"▁여는":11790,"▁朴":11791,"▁의지":11792,"▁거죠":11793,"군으로":11794,"라고도":11795,"개월만에":11796,"오후":11797,"티스":11798,"▁경호":11799,"▁마리아":11800,"▁아리":11801,"▁당신의":11802,"▁대가로":11803,"▁수준이":11804,"▁대우조선해양":11805,"ton":11806,"▁오케":11807,"하기를":11808,"▁불공정":11809,"기인":11810,"▁암살":11811,"▁터널":11812,"▁정책위의":11813,"▁사무총장":11814,"GS":11815,"전통":11816,"ith":11817,"RPG":11818,"▁저자는":11819,"▁진단했다":11820,"▁관점에서":11821,"예금":11822,"▁버락":11823,"습기":11824,"▁선관":11825,"photo":11826,"▁획기":11827,"된다면":11828,"▁씻":11829,"회사인":11830,"▁연평도":11831,"▁-0":11832,"본문":11833,"▁즉위":11834,"▁있을지":11835,"▁명단":11836,"▁새마을":11837,"태를":11838,"▁아우디":11839,"▁지위를":11840,"▁사옥":11841,"▁강진":11842,"▁보냈":11843,"▁뜻으로":11844,"았다는":11845,"▁행진":11846,"자동":11847,"▁일부가":11848,"▁사외":11849,"▁새누리당이":11850,"로봇":11851,"보고서":11852,"▁순이었다":11853,"▁났다":11854,"스트리트":11855,"▁수감":11856,"(0.0":11857,"▁관료":11858,"▁폴리":11859,"총괄":11860,"▁식약":11861,"▁지역이":11862,"▁뉴스가":11863,"▁UN":11864,"▁이창":11865,"▁주방":11866,"님을":11867,"▁질문을":11868,"▁운영에":11869,"▁옳":11870,"런트":11871,"법률":11872,"▁늦게":11873,"스런":11874,"▁작품이다":11875,"▁광장":11876,"번지":11877,"▁누리꾼들은":11878,"중독":11879,"▁new":11880,"▁물건을":11881,"▁헨":11882,"▁87":11883,"▁요인이":11884,"▁『":11885,"둘러":11886,"▁교보":11887,"북한이":11888,"value":11889,"동계":11890,"▁GM":11891,"▁상실":11892,"▁갖췄다":11893,"▁못하게":11894,"▁본인의":11895,"▁한다면":11896,"고래":11897,"▁노르웨이":11898,"▁내놓았다":11899,"▁전경련":11900,"▁특성화":11901,"▁시나리오":11902,"▁칩":11903,"슨은":11904,"퀘어":11905,"▁백신":11906,"▁모멘텀":11907,"사업자":11908,"▁거리를":11909,"▁실전":11910,"▁울산시":11911,"▁원고":11912,"▁www":11913,"▁강조한":11914,"▁수시로":11915,"▁원인은":11916,"▁모델이":11917,"당했다":11918,"▁관측이":11919,"’\"":11920,"▁붐":11921,"층은":11922,"▁현상을":11923,"▁삭감":11924,"▁선의":11925,"▁있어요":11926,"▁그룹의":11927,"▁송파구":11928,"▁설명을":11929,"▁중이던":11930,"▁수입차":11931,"▁맞고":11932,"▁제작된":11933,"▁한마디":11934,"▁한상":11935,"▁청계":11936,"2014":11937,"▁산정":11938,"받는다":11939,"_1":11940,"분과":11941,"▁명문":11942,"...“":11943,"방식":11944,"일부":11945,"▁셋째":11946,"▁영화를":11947,"▁기본적인":11948,"▁개소":11949,"▁채워":11950,"▁전문의":11951,"▁1981":11952,"▁LA":11953,"ilbo":11954,"▁톤":11955,"▁때의":11956,"▁전년보다":11957,"현지시각":11958,"▁정신을":11959,"▁주요뉴스":11960,"개념":11961,"부부":11962,"uc":11963,"마일":11964,"▁호텔에서":11965,"인민공화국":11966,"▁단위로":11967,"느라":11968,"관절":11969,"▁움직임을":11970,"▁이렇":11971,"투명":11972,"호흡":11973,"▁통증":11974,"▁방식이다":11975,"▁빨간":11976,"▁시위를":11977,"▁모습으로":11978,"마는":11979,"▁개선에":11980,"국장은":11981,"▁출구":11982,"▁후쿠시마":11983,"▁세계를":11984,"▁미분양":11985,"▁허브":11986,"예요":11987,"주도":11988,"▁나라를":11989,"▁다채로운":11990,"▁세상의":11991,"동력":11992,"▁정부를":11993,"▁낙동강":11994,"▁사회를":11995,"랑이":11996,"▁자는":11997,"▁리조트":11998,"론은":11999,"▁씨와":12000,"▁사람도":12001,"▁약세를":12002,"기아차":12003,"▁있느냐":12004,"▁적어도":12005,"▁증가로":12006,"비치":12007,"▁청산":12008,"▁켜":12009,"▁작가의":12010,"고생":12011,"▁킹":12012,"▁원화":12013,"▁카드를":12014,"▁태도를":12015,"▁거점":12016,"가구로":12017,"▁증시는":12018,"▁고리":12019,"동원":12020,"▁들어오":12021,"▁거대":12022,"비디오":12023,"▁경부":12024,"▁로또":12025,"▁초콜릿":12026,"▁내걸":12027,"▁본질":12028,"▁3~4":12029,"▁브랜드로":12030,"▁처음에는":12031,"▁퀴":12032,"▁아산":12033,"▁기관의":12034,"▁전통적인":12035,"추가":12036,"top":12037,"▁나스닥":12038,"▁나란히":12039,"▁정치뉴스":12040,"▁선행":12041,"▁오스트레일리아":12042,"기관에":12043,"보겠습니다":12044,"금액은":12045,"▁생각합니다":12046,"식품부":12047,"여명을":12048,"카드는":12049,"Main":12050,"▁경제에":12051,"잖아요":12052,"▁않겠다":12053,"▁정치를":12054,"▁멈추":12055,"▁추측":12056,"년대에":12057,"▁되자":12058,"▁오찬":12059,"▁스펙":12060,"▁여성을":12061,"io":12062,"으려":12063,"▁거제":12064,"현대차":12065,"비리":12066,"▁기본적으로":12067,"▁과다":12068,"컨설팅":12069,"▁완벽한":12070,"코리아는":12071,"▁아니었다":12072,"▁코미":12073,"▁한계가":12074,"▁0.1%":12075,"사정":12076,"웠던":12077,"▁7%":12078,"▁소지":12079,"▁작업에":12080,"▁스킨":12081,"▁장비를":12082,"지요":12083,"학과를":12084,"▁바른정당":12085,"▁존재하는":12086,"▁꼽히는":12087,"니지":12088,"▁지속가능":12089,"ers":12090,"균관":12091,"통은":12092,"▁있었으나":12093,"▁토크":12094,"▁타격을":12095,"할지":12096,"블로":12097,"▁1.6":12098,"▁참가자":12099,"∼3":12100,"▁돌아온":12101,"원주":12102,"▁활동이":12103,"금자리":12104,"▁평가가":12105,"▁IMF":12106,"▁사진이":12107,"▁박차를":12108,"▁시작하는":12109,"업계의":12110,"▁킨":12111,"▁구직":12112,"▁경향이":12113,"▁자영업":12114,"▁수익률을":12115,"▁따져":12116,"▁꼬집":12117,"스쿨":12118,"감은":12119,"드레":12120,"뱅킹":12121,"▁소비자의":12122,"3'":12123,"▁레벨":12124,"▁추가적인":12125,"남북":12126,"다란":12127,"▁인식을":12128,"▁효과적으로":12129,"한을":12130,"▁대강":12131,"▁히트":12132,"▁세우고":12133,"▁전장":12134,"▁화제다":12135,"▁온실":12136,"▁다각":12137,"▁범위를":12138,"▁펼쳤다":12139,"▁위험을":12140,"번째로":12141,"▁홈플러스":12142,"▁시계":12143,"▁선언했다":12144,"업체가":12145,"▁분석된다":12146,"▁의문":12147,"▁이르기까지":12148,".【":12149,"▁브라운":12150,"나고":12151,"능력을":12152,"▁커뮤니케이션":12153,"html":12154,"대변":12155,"지역을":12156,"▁판정을":12157,"차적으로":12158,"▁놓은":12159,"▁신종":12160,"▁지정된":12161,"▁김희":12162,"▁조율":12163,"▁투자하는":12164,"▁사냥":12165,"보디아":12166,"▁연결해":12167,"▁내용으로":12168,"기간을":12169,"man":12170,"▁재학생":12171,"▁각국":12172,"▁직원들의":12173,"▁과잉":12174,"▁만났다":12175,"▁헤이":12176,"▁협회":12177,"▁해결하기":12178,"내에":12179,"▁두루":12180,"▁맞물":12181,"pt":12182,".,":12183,"cess":12184,"들여":12185,"▁국제사회":12186,"▁매진":12187,"-6":12188,"저널":12189,"▁각오":12190,"▁지역주민":12191,"]◀":12192,"▁구형":12193,"▁겨우":12194,"▁앞선":12195,"▁초고":12196,"아이포커스":12197,"가장":12198,"▁커버":12199,"▁업체인":12200,"▁뜻하는":12201,"orea":12202,"되게":12203,"▁다양하게":12204,"환경을":12205,"▁병원을":12206,"▁이뤄진다":12207,"▁신생":12208,"▁공주":12209,"▁집안":12210,"수당":12211,"중계":12212,"▁가산":12213,"▁조문":12214,"일째":12215,"▁이현":12216,"▁시작하였다":12217,"▁실시하는":12218,"내에서":12219,"특허":12220,"나게":12221,"▁갑작":12222,"▁성동":12223,"작을":12224,"의회는":12225,"▁전체적으로":12226,"▁'0":12227,"▁마음으로":12228,"▁83":12229,"화되고":12230,"모비스":12231,"▁탄도":12232,"▁동북아":12233,"할까":12234,"▁들어와":12235,"▁있었으며":12236,"▁후보자가":12237,"▁특별히":12238,"비상":12239,"▁그에게":12240,"▁비서실":12241,"▁그게":12242,"▁마스크":12243,"색이":12244,"통계":12245,"시장과":12246,"▁터미널":12247,"▁소위":12248,"heraldm":12249,"▁서면":12250,"업소":12251,"미술관":12252,"▁모래":12253,"▁점심":12254,"▁증대":12255,"▁마스터":12256,"틀랜드":12257,"▁우리은행":12258,"대생":12259,"오브":12260,"항만":12261,"▁우편":12262,"▁부드러운":12263,"▁기준이":12264,"베이션":12265,"▁그럴":12266,"▁청와대는":12267,"▁원금":12268,"임에도":12269,"CR":12270,"참모":12271,"▁금연":12272,"릭스":12273,"our":12274,"▁물론이고":12275,"▁상공":12276,"▁사용자가":12277,"구리":12278,"▁홈쇼핑":12279,"▁불출":12280,"▁세계에":12281,"▁자유한국당":12282,"▁규정을":12283,"▁때보다":12284,"▁선수권":12285,"▁OECD":12286,"▁기다리고":12287,"병이":12288,"▁산책":12289,"De":12290,"▁펠":12291,"화물":12292,"▁소음":12293,"▁안돼":12294,"▁http":12295,"블루":12296,"▁다니는":12297,"InfoLayer":12298,"▁currentDate":12299,"텍스":12300,"▁중대":12301,"타인":12302,"▁안전하게":12303,"▁시연":12304,"▁명목으로":12305,"▁국정조사":12306,"▁기록할":12307,"▁카지노":12308,"▁효과적인":12309,"contents":12310,"▁온도":12311,"▁살아남":12312,"▁전국이":12313,"wor":12314,"▁98":12315,"기업에":12316,"▁요인":12317,"기에서":12318,"▁지역별":12319,"▁있었습니다":12320,"상품을":12321,"▁이유다":12322,"▁선원":12323,"▁영업을":12324,"▁이어갔다":12325,"'+":12326,"됐을":12327,"▁관심과":12328,"▁지도자":12329,"발의":12330,"▁본사에서":12331,"▁창단":12332,"통신은":12333,"donga":12334,"▁들여다":12335,"▁뻔":12336,"▁특별법":12337,"우리가":12338,"▁공적":12339,"▁손가락":12340,"개에":12341,"방법":12342,"보통":12343,"차익":12344,"▁예선":12345,"▁광장에서":12346,"▁공장을":12347,"네이":12348,"▁기지":12349,"▁바라는":12350,"krGoodNews":12351,"▁마산":12352,"▁어두":12353,"▁주었다":12354,"▁3.0":12355,"▁미얀마":12356,"▁전설":12357,"▁그림을":12358,"▁통일부":12359,"부산파이낸셜뉴스":12360,"▁많았고":12361,"▁며칠":12362,"▁약속을":12363,"▁적어":12364,"▁패밀리사이트":12365,"▁시원":12366,"▁Content":12367,"5·":12368,"다양":12369,"▁정성":12370,"PU":12371,"배로":12372,"오늘은":12373,"▁투표를":12374,"스마트폰":12375,"▁아직까지":12376,"▁이하로":12377,"▁받았다고":12378,"년간의":12379,"▁재검토":12380,"지하철":12381,"▁남겼다":12382,"함은":12383,"(),":12384,"▁위해선":12385,"▁킬":12386,"▁공사가":12387,"▁민정":12388,"▁빈곤":12389,"▁청원":12390,"▁노란":12391,"▁경우에도":12392,"▁근절":12393,"▁수출이":12394,"▁굽":12395,"세력":12396,"음료":12397,"현의":12398,"들고":12399,"▁그날":12400,"▁환승":12401,"실업":12402,"▁염두에":12403,"▁index":12404,"▁어렵게":12405,"▁시스템이":12406,"▁소홀":12407,"반도체":12408,"▁방문하는":12409,"▁도민":12410,"▁채취":12411,"▁화산":12412,"▁쓰인다":12413,"▁원료":12414,"▁판교":12415,"All":12416,"▁감찰":12417,"▁논란에":12418,"▁지방의":12419,"▁이것을":12420,"▁일본군":12421,"▁하나금융":12422,"왔던":12423,"▁학교를":12424,"▁스미":12425,"▁정도를":12426,"▁해상에서":12427,"▁의혹에":12428,"식에는":12429,"▁광범위":12430,"▁한옥":12431,"▁관계없이":12432,"▁정확하게":12433,"▁굵":12434,"ICT":12435,"▁Hub":12436,"▁모바일게임":12437,"▁웨이":12438,"▁상승을":12439,"▁종목은":12440,"▁단어":12441,"사회복지":12442,"형에":12443,"▁번의":12444,"레이크":12445,"▁상태에":12446,"수영":12447,"년에서":12448,"▁오늘은":12449,"로서는":12450,"▁본인이":12451,"▁보낼":12452,"▁흙":12453,"▁네이":12454,"▁수비":12455,"▁하남":12456,"▁체결한":12457,"▁제대로된":12458,"학술":12459,"▁사용을":12460,"▁조건으로":12461,"호남":12462,"▁보전":12463,"▁강등":12464,"안내":12465,"▁소액":12466,"▁교원":12467,"타를":12468,"▁변호사는":12469,"▁이시":12470,"▁폭넓":12471,"▁노래를":12472,"-7":12473,"▁경로":12474,"▁겨냥한":12475,"르몬":12476,"해상":12477,"▁과시":12478,"▁다음으로":12479,"▁빼돌":12480,"▁홈런":12481,"▁최고치를":12482,"po":12483,"▁인건":12484,"▁참조":12485,"▁재임":12486,"▁한국거래":12487,"▁주소":12488,"▁분야를":12489,"▁움직임이":12490,"▁양적완화":12491,"▁→":12492,"▁한방":12493,"▁마련하고":12494,"청을":12495,"▁고려할":12496,"방어":12497,"베이스":12498,"▁작용할":12499,"========":12500,"본다":12501,"▁이의":12502,"▁높아졌다":12503,"조명":12504,"▁고스":12505,"라스틱":12506,"▁예산이":12507,"▁1973":12508,"▁됐다고":12509,"▁여야가":12510,"▁워터":12511,"▁비서관":12512,"▁폭스바겐":12513,"자고":12514,"공모":12515,"category":12516,"▁불필":12517,"독립":12518,"구속":12519,"보이":12520,"포털":12521,"▁원이":12522,"▁해지":12523,"▁아이템을":12524,"▁스프":12525,"▁기능성":12526,"▁마포구":12527,"▁예상됩니다":12528,"▁등장한":12529,"▁수출입":12530,"하되":12531,"▁구축을":12532,"▁동원해":12533,"▁스마트한":12534,"▁회원국":12535,"디스":12536,"▁김은":12537,"▁구입할":12538,"▁금리가":12539,"▁연방준비":12540,"▁체제를":12541,"돌이":12542,"류는":12543,"▁등록금":12544,"▁보세요":12545,"페스티벌":12546,"▁장려":12547,"▁참여한다":12548,"▁하락세를":12549,"▁데이비드":12550,"▁기술과":12551,"▁이틀째":12552,"드라":12553,"▁방사능":12554,"▁룩":12555,"▁대림":12556,"▁항만":12557,"모리":12558,"▁고통을":12559,"▁걸고":12560,"▁좋을":12561,"▁세입":12562,"are":12563,"피를":12564,"▁나타난다":12565,"하신":12566,"▁걸릴":12567,"▁꾸며":12568,"리포트":12569,"하느냐":12570,"▁퓨":12571,"꺼번에":12572,"달러를":12573,"▁'2015":12574,"▁알뜰":12575,"▁mm":12576,"▁소개하고":12577,"경주":12578,"파리":12579,"▁전망을":12580,"▁시카고":12581,"▁저지른":12582,"개소":12583,"▁홈페이지에":12584,"▁통화에서":12585,"▁눌":12586,"▁고무":12587,"▁천황":12588,"▁사망했다":12589,"현황":12590,"▁증강":12591,"▁한복":12592,"▁li":12593,"▁오고":12594,"▁체중":12595,"SBS":12596,"▁공헌":12597,"▁나가겠다":12598,"▁입체":12599,"회생":12600,"▁유한":12601,"▁임무":12602,"▁탄탄":12603,"▁서울대학교":12604,"▁국도":12605,"▁아티스트":12606,"▁수거":12607,"▁경제를":12608,"단속":12609,"▁조선중앙":12610,"▁구별":12611,"▁우회":12612,"▁넣고":12613,"▁맺은":12614,"해진다":12615,"▁여학생":12616,"정동":12617,"'◆":12618,"카메라":12619,"학부":12620,"기관과":12621,"▁피부에":12622,"▁확보할":12623,"이니":12624,"▁인문":12625,"상수":12626,"▁협력해":12627,"▁tr":12628,"▁혜택이":12629,"▁선고했다":12630,"▁청와대에서":12631,"열을":12632,"▁폭락":12633,"▁국민에게":12634,"령이":12635,"▁소멸":12636,"기간이":12637,"▁아메리카":12638,"▁조선민주주의":12639,"▁모토":12640,"▁일명":12641,"의사":12642,"▁6·":12643,"만명의":12644,"어지는":12645,"▁살해한":12646,"▁전주시":12647,"주자":12648,"▁확대에":12649,"긴다":12650,"색의":12651,"편집":12652,"▁넷마블":12653,"기관으로":12654,"으니까":12655,"▁개선이":12656,"▁고려한":12657,"index":12658,"▁트래":12659,"▁늘리고":12660,"▁원자재":12661,"티지":12662,"▁확대될":12663,"▁북극":12664,"▁원인으로":12665,"▁호조":12666,"▁도널드":12667,"▁극장":12668,"▁US":12669,"▁환급":12670,"노동조합":12671,"▁서울시가":12672,"▁무서":12673,"▁신혼":12674,"▁처리를":12675,"▁선대":12676,"▁후퇴":12677,"▁근접":12678,"커뮤니":12679,"▁공채":12680,"▁구단":12681,"터널":12682,"▁그랬":12683,"▁코치":12684,"▁다운받기":12685,"연설":12686,"▁주시":12687,"▁그러한":12688,"▁회사에":12689,"강의":12690,"동생":12691,"▁거둔":12692,"▁재학":12693,"▁이후로":12694,"▁젊은이":12695,"▁상회":12696,"▁출품":12697,"크림":12698,"▁제로":12699,"가에서":12700,"▁역을":12701,"▁이어갈":12702,"▁끈다":12703,"▁지경":12704,"▁재차":12705,"▁조치가":12706,"▁피로":12707,"▁사건과":12708,"▁푸른":12709,"뤘다":12710,"─┼────":12711,"혈압":12712,"▁전문가들의":12713,"▁높아질":12714,"응답":12715,"▁프로그램으로":12716,"▁탄력":12717,"장관은":12718,"▁한전":12719,"마르":12720,"명도":12721,"▁닦":12722,"▁떨어질":12723,"▁연체":12724,"자나":12725,"봅니다":12726,"임이":12727,"\"\")).":12728,"CommentCount":12729,"articleTitle":12730,"▁방출":12731,"▁최적의":12732,"▁유네스코":12733,"모레퍼시픽":12734,"경험":12735,"에다":12736,"▁제공하기":12737,"▁편리하게":12738,"주의를":12739,"▁신조":12740,"▁선정한":12741,"▁관행":12742,"▁민중":12743,"▁처분을":12744,"기초":12745,"▁한꺼번에":12746,"▁해변":12747,"▁후보에":12748,"열차":12749,"지급":12750,"▁꺼내":12751,"▁대지진":12752,"▁국비":12753,"▁위헌":12754,"과장은":12755,"▁보여준":12756,"▁체계를":12757,"▁바이어":12758,"만으로도":12759,"lling":12760,".21":12761,"▁속속":12762,"총생산":12763,"▁달라진":12764,"▁은행의":12765,"▁보며":12766,"▁적용할":12767,"▁배가":12768,"NH":12769,"장도":12770,"평등":12771,"▁환율이":12772,"▁그레이":12773,"▁병원에":12774,"▁선거운동":12775,"▁매력을":12776,"▁복무":12777,"▁마련을":12778,"▁위법":12779,"▁문제점을":12780,"가게":12781,"▁중이며":12782,"▁보호를":12783,"▁업체들이":12784,"ts":12785,"▁나타났습니다":12786,"▁투자자들의":12787,"▁세균":12788,"▁자이":12789,"▁전반적으로":12790,"▁밖에도":12791,"▁지냈":12792,"▁선택한":12793,"▁종가":12794,"▁굿":12795,"▁정면":12796,"▁한눈에":12797,"▁주최로":12798,"▁선물을":12799,"▁싸이":12800,"br":12801,"모직":12802,"▁미국을":12803,"▁높아진":12804,"매를":12805,"▁입시":12806,"▁성폭력":12807,"▁1972":12808,"▁발을":12809,"▁과정이":12810,"▁연상":12811,"▁내년에":12812,"과세":12813,"▁역설":12814,"▁강력히":12815,"▁미용":12816,"▁네트워크를":12817,"새정치":12818,"▁움직이는":12819,"▁동해안":12820,"▁되었으며":12821,"▁유혹":12822,"▁원칙을":12823,"...\"\"▶":12824,"cument":12825,"▁예능":12826,"▁하나다":12827,"▁로버트":12828,"가격이":12829,"▁기쁘":12830,"▁아이들의":12831,"CS":12832,"▁☎":12833,"▁LS":12834,"▁여전":12835,"▁시작할":12836,"▁5·18":12837,"▁반전":12838,"사도":12839,"▁실종자":12840,"▁자랑하는":12841,"ile":12842,"▁대회는":12843,"▁대학원":12844,"▁성장세를":12845,"▁후계":12846,"▁예산안":12847,"공원에서":12848,"▁손으로":12849,"스틱":12850,"▁사용이":12851,"▁중국어":12852,"▁하드웨어":12853,"▁활용하는":12854,"동향":12855,"▁신청할":12856,"▁또다른":12857,"▁일정한":12858,"▁봉사활동을":12859,"▁시장점유":12860,"▁이산가족":12861,"▁사용하여":12862,"\\'":12863,"▁세우":12864,"▁건축물":12865,"▁늘리는":12866,"▁프로듀":12867,"▁비만":12868,"▁브리핑을":12869,"석에":12870,"▁법을":12871,"▁판매량":12872,"▁그러면":12873,"▁주교":12874,"▁필요로":12875,"▁바꿀":12876,"▁확인해":12877,"용지":12878,"▁왼쪽부터":12879,"▁희귀":12880,"▁마케팅을":12881,"▁박수":12882,"▁한성":12883,"대신":12884,"지않":12885,"▁자라":12886,"네트웍":12887,"▁신속한":12888,"▁도입한":12889,"기업으로":12890,"▁이대":12891,"▁이세":12892,"▁이어진다":12893,"▁말부터":12894,"크의":12895,"아르":12896,"▁멸종":12897,"달라는":12898,"니가":12899,"▁병역":12900,"HA":12901,"이후":12902,"▁김도":12903,"▁표결":12904,"보레":12905,"▁나간":12906,"▁상무는":12907,"▁탕":12908,"▁아이들":12909,"]●":12910,"▁후지":12911,"▁작품이":12912,"▁투자해":12913,"▁일도":12914,"▁각광":12915,"》()":12916,"▁96":12917,"▁탁월한":12918,"▁낮춰":12919,"▁인제":12920,"▁제공한":12921,"▁논리":12922,"▁느꼈":12923,"▁반기문":12924,"▁면에서":12925,"▁신성":12926,"▁여부는":12927,"재무":12928,"가구가":12929,"부지":12930,"자녀":12931,"▁신영":12932,"증권방송":12933,"▁1978":12934,"▁구제금융":12935,"년은":12936,"idth":12937,"▁책임이":12938,"연도":12939,"▁때에":12940,"포스트":12941,"▁리얼":12942,"만원씩":12943,"▁시민사회":12944,"▁새끼":12945,"~12":12946,"▁박스":12947,"의학":12948,"앤젤":12949,"줄이":12950,"▁결정한":12951,"學校":12952,"▁전두환":12953,"▁않으며":12954,"▁반박했다":12955,"▁설치하고":12956,"▁이곳에서":12957,"▁낫":12958,"▁가방":12959,"▁기법전수":12960,"▁행정부":12961,"면허":12962,"▁절약":12963,"▁확실한":12964,"청와대":12965,"▁외환은행":12966,"스포츠서울":12967,"▁카이":12968,"▁포격":12969,"▁성장이":12970,"브리핑":12971,"▁기대할":12972,"▁사우디":12973,"경과":12974,"버스터":12975,"▁말하고":12976,"▁이해할":12977,"측에":12978,"▁비판이":12979,"▁졸업한":12980,"▁표면":12981,"▁복수":12982,"▁증상":12983,"▁차지한":12984,"▁초대형":12985,"▁개최되는":12986,"▁전셋":12987,"▁체코":12988,"▁환경에":12989,"▁94":12990,"▁단백질":12991,"ca":12992,"기업을":12993,"▁신성장":12994,"AE":12995,"담을":12996,"▁국감":12997,"▁윗":12998,"▁판단을":12999,"▁고려하면":13000,"▁구호":13001,"▁발생하지":13002,"BM":13003,"▁김인":13004,"▁양의":13005,"셔야":13006,"▁금강산":13007,"교섭":13008,"▁이루는":13009,"루미":13010,"▁지키는":13011,"ref":13012,"▁의미로":13013,"▁아마존":13014,"문과":13015,"ell":13016,"▁최재":13017,"▁게이머":13018,"▁논의했다":13019,"▁했을":13020,"불법":13021,"▁노예":13022,"사회적":13023,"▁도요타":13024,"ther":13025,"▁개최한":13026,"강도":13027,"▁1974":13028,"▁모른다":13029,"▁벌이는":13030,"▁에피소":13031,"위원회와":13032,"▁인사말을":13033,"테르":13034,"▁부임":13035,"▁그러니까":13036,"▁골라":13037,"하므로":13038,"▁압축":13039,"▁파키스탄":13040,"▁작품으로":13041,"▁대대적인":13042,"▁보고서는":13043,"방해":13044,"▁구역":13045,"▁까다":13046,"▁않았다는":13047,"양은":13048,"▁곱":13049,"욕을":13050,"남미":13051,"▁안타깝":13052,"추어":13053,"마당":13054,"▁경기에":13055,"▁1975":13056,"▁보령":13057,"고로":13058,"매장":13059,"▁퇴임":13060,"▁확실히":13061,"▁예상하고":13062,"전성":13063,"(40":13064,"▁들어간다":13065,"▁신속하게":13066,"보로":13067,"▁가결":13068,"▁까지":13069,"▁희망하는":13070,"...◆":13071,"▁지원하기":13072,"▁민감한":13073,"▁이뤄지고":13074,"주지":13075,"▁아시아나항공":13076,"▁주차장":13077,"▁여권":13078,"▁외모":13079,"▁감독이":13080,"▁가리키는":13081,"▁확신":13082,"맞춤":13083,"▁중산":13084,"그리앱":13085,"해준다":13086,"▁89":13087,"▁맛이":13088,"▁민간인":13089,"▁애플이":13090,"▁“‘":13091,"▁2500":13092,"줄리아":13093,"▁2019":13094,"배가":13095,"▁거리가":13096,"▁배럴당":13097,"우여":13098,"▁확대하는":13099,"▁뜨겁":13100,"▁긴축":13101,"▁재미를":13102,"▁미친":13103,"▁개혁을":13104,"▁꽤":13105,"슬림":13106,"▁천주교":13107,"td":13108,"▁근본적인":13109,"▁조계":13110,"심과":13111,"▁IoT":13112,"▁상품으로":13113,"▁연중":13114,"▁절도":13115,"▁주민등록":13116,"인간":13117,"▁고사":13118,"▁CNET":13119,"▁에너지를":13120,"▁실적은":13121,"▁비율을":13122,"▁대상에":13123,"▁여섯":13124,"Obj":13125,"▁사면":13126,"30)":13127,"▁살균":13128,"▁360":13129,"외환":13130,"▁당했다":13131,"ear":13132,"▁긍정적으로":13133,"▁구리":13134,"▁시즌을":13135,"▁이외에":13136,"▁일본인":13137,"사키":13138,"군요":13139,"5%)":13140,"▁계급":13141,"▁국가대표팀":13142,"김정은":13143,"박물":13144,"▁독려":13145,"**":13146,"▁테이블":13147,"▁회원들이":13148,"▁생애":13149,"▁일선":13150,"▁대원":13151,"▁만만":13152,"DNet":13153,"▁농어촌":13154,"▁관리에":13155,"▁극심한":13156,"콜라":13157,"▁재판에":13158,"폴리스":13159,"▁손잡고":13160,"▁양재":13161,"▁부문의":13162,"▁생겼":13163,"▁안전성":13164,"투자대회":13165,"▁ZDNet":13166,"▁집필":13167,"▁97":13168,"됐으나":13169,"그림":13170,"민간":13171,"▁신재생":13172,"▁해설":13173,"▁가족의":13174,"▁이건희":13175,"▁남경":13176,"효과를":13177,"atta":13178,"만주":13179,"▁체험할":13180,"사업부":13181,"▁금요일":13182,"▁협조를":13183,"메가뉴스":13184,"도의회":13185,"▁중부지방":13186,"·1":13187,"▁탈모":13188,"거리가":13189,"▁반성":13190,"▁용산구":13191,"▁감독은":13192,"했는지":13193,"▁장관을":13194,"▁박용":13195,"▁중지":13196,"▁지수가":13197,"▁비핵":13198,"▁북한을":13199,"인민공화":13200,"▁r":13201,"▁드레스":13202,"국대":13203,"수행":13204,"▁연구에":13205,"계에서":13206,"▁있나":13207,"이면서":13208,"▁나타내":13209,"란스":13210,"▁달간":13211,"▁보면서":13212,"위권":13213,"▁나뉜":13214,"▁불과했다":13215,"형과":13216,"▁못하면":13217,"연휴":13218,"▁웹툰":13219,"윤리":13220,"지역은":13221,"▁심포":13222,"ill":13223,"▁데는":13224,"▁높다는":13225,"▁성범죄":13226,"▁신한은행":13227,"▁이코노미":13228,"▁팀은":13229,"▁잦은":13230,"출처":13231,"▁이용하면":13232,"▁놓여":13233,"▁내의":13234,"▁불량":13235,"▁이정현":13236,"▁바뀌었다":13237,"▁삼성서울병원":13238,"▁본부장은":13239,"isp":13240,"사랑의":13241,"▁업무협약을":13242,"▁훌륭한":13243,"▁전쟁이":13244,"▁속에서도":13245,"메리":13246,"▁위주의":13247,"▁트랜":13248,"▁지난해부터":13249,"▁시민이":13250,"▁예상치":13251,"국민일보":13252,"▁효율적인":13253,"성남":13254,"2%)":13255,"ik":13256,"▁드러난":13257,"▁방문객":13258,"▁사용된":13259,"SW":13260,"전당":13261,"▁VR":13262,"▁선교":13263,"▁자세히":13264,"▁레이더":13265,"▁입장에서는":13266,"▁준비했다":13267,"▁옐":13268,"센터와":13269,"외국인":13270,"국적":13271,"클리":13272,"▁방송된":13273,"한국아이닷컴":13274,"▁제안한":13275,"▁공업":13276,"▁다큐":13277,"▁들을":13278,"▁크기의":13279,"▁전과":13280,"평창":13281,"▁ETF":13282,"여러":13283,"▁일일":13284,"joong":13285,"▁왕복":13286,"지영":13287,"가구를":13288,"번의":13289,")☞":13290,"▁엔씨소프트":13291,"있고":13292,"▁수직":13293,"▁112":13294,"프로젝트":13295,"▁차량의":13296,"▁차례로":13297,"▁이들에게":13298,"▁끓":13299,"▁유방":13300,"▁비트":13301,"▁아이디":13302,"▁우리나라는":13303,"▁결정이":13304,"▁합의한":13305,"▁요인으로":13306,"▁충청남도":13307,"zd":13308,"거리는":13309,"▁작성한":13310,"▁북서":13311,"▁야당의":13312,"아름":13313,"▁선별":13314,"▁메시지":13315,"▁무제한":13316,"▁법안을":13317,"곡동":13318,"▁고양시":13319,"▁위원회":13320,"통이":13321,"▁면세":13322,"솔루션":13323,"영화제":13324,"▁기술은":13325,"▁1976":13326,"▁상을":13327,"▁전복":13328,"3%)":13329,"▁lo":13330,"▁기숙":13331,"는데도":13332,"▁몸이":13333,"▁식량":13334,"화장품":13335,"슬라이드":13336,"For":13337,"룸에서":13338,"▁시흥":13339,"...☞":13340,"init":13341,"▁현실을":13342,"▁화상":13343,"▁1.8":13344,"▁통화정책":13345,"훈련을":13346,"▁제안을":13347,"▁해명했다":13348,"▁참모":13349,"▁웅진":13350,"▁보자":13351,"▁약한":13352,"▁포상":13353,"▁OLED":13354,"게이션":13355,"두로":13356,"▁공방":13357,"▁협상이":13358,"▁롯데그룹":13359,"벚꽃":13360,"▁도입해":13361,"▁기술개발":13362,"▁투자노트":13363,"▁가능하도록":13364,"▁캄보디아":13365,"Rolling":13366,"▁전지":13367,"▁부산일보":13368,"▁희생자":13369,"보며":13370,"▁출고":13371,"▁안다":13372,"▁방안에":13373,"▁뭘":13374,"▁선생님":13375,"▁시속":13376,"▁기술로":13377,"▁동아시아":13378,"▁해외에서":13379,"오마이뉴스":13380,"▁전망입니다":13381,"피니":13382,"▁기대했다":13383,"▁뜯":13384,"▁1.4":13385,"▁대응을":13386,"▁관리가":13387,"▁혁신을":13388,"▁진흥":13389,"▁이어지":13390,"▁교육과":13391,"title":13392,"▁관광객이":13393,"▁93":13394,"▁픽":13395,"▁밖의":13396,"▁업체의":13397,"▁계속되고":13398,"RO":13399,"월드컵":13400,"▁동탄":13401,"▁중학생":13402,"▁주어진다":13403,"▁부추":13404,"총회를":13405,"▁금액은":13406,"▁순회":13407,"▁주목할":13408,"▁막고":13409,"▁무대를":13410,"▁이뤄지는":13411,"벌이":13412,"▁차질":13413,"니의":13414,"▁장관과":13415,"▁격리":13416,"▁유예":13417,"▁영역을":13418,"▁기업들은":13419,"▁外":13420,"마루":13421,"▁만찬":13422,"▁주된":13423,"▁양쪽":13424,"▁고구려":13425,"▁바둑":13426,"▁정교":13427,"졌을":13428,"▁군수":13429,"MBC":13430,"▁안전사고":13431,"자재":13432,"▁프로그램에":13433,"▁승무원":13434,"▁집회를":13435,"▁임대주택":13436,"방울":13437,"으리":13438,"안전처":13439,"▁대응할":13440,"▁해주는":13441,"▁코드":13442,"▁시진핑":13443,"▁가정의":13444,"▁체계적인":13445,"▁위험한":13446,"▁영등포구":13447,"식물":13448,"▁0.4":13449,"▁짓는":13450,"▁차장":13451,"격이":13452,"라이언":13453,"손안의":13454,"▁건물을":13455,"▁장점이":13456,"▁산악":13457,"▁모델은":13458,"러블":13459,"시간에":13460,"▁연안":13461,"▁수사가":13462,"보훈":13463,"▁select":13464,"행성":13465,"음에":13466,"▁파는":13467,"▁튼":13468,"cbs":13469,"▁의지가":13470,"▁성우":13471,"▁마이너스":13472,"▁발생하고":13473,"먹는":13474,"단에서":13475,"▁리서치":13476,"조성":13477,"파이어":13478,"가수":13479,"▁넘어섰다":13480,"▁브랜드의":13481,"▁인정받아":13482,"joongang":13483,"▁고의":13484,"▁재산을":13485,"▁나고":13486,"▁\"\"1":13487,"업체에":13488,"▁뚜렷한":13489,"▁골자로":13490,"▁힘들어":13491,"▁불꽃":13492,"zdnet":13493,"▁잡는":13494,"조치를":13495,"!”":13496,"바르":13497,"▁내놓고":13498,"종인":13499,"▁농림축산":13500,"▁300'][":13501,"▁게임은":13502,"SectionName":13503,"selectedIndex":13504,"양군":13505,"▁택배":13506,"밀하게":13507,"oJson":13508,"▁PB":13509,"▁사람과":13510,"지역으로":13511,"▁애로":13512,"▁조성을":13513,"▁확보해":13514,"▁펼칠":13515,"▁사항을":13516,"▁과반":13517,"내외":13518,"쳤습니다":13519,"▁사망자":13520,"▁휴게":13521,"▁정재":13522,"▁조카":13523,"▁커다란":13524,"▁빛을":13525,"▁화제를":13526,"채를":13527,"지출":13528,"▁무엇을":13529,"회사가":13530,"▁추후":13531,"▁교육과학기술":13532,"▁인식이":13533,"▁무상급식":13534,"싸움":13535,"▁언급한":13536,"▁치유":13537,"▁삼각":13538,"▁울릉":13539,"YTN":13540,"▁부산의":13541,"▁평범":13542,"▁그나마":13543,"▁막는":13544,"▁안정적":13545,"▁싣":13546,"▁보합":13547,"▁올레":13548,"▁사업비":13549,"살인":13550,"▁휩싸":13551,"재배포":13552,"컴퓨터":13553,"폭행":13554,"▁물건":13555,"▁국토부는":13556,"러는":13557,"▁학과":13558,"▁할인된":13559,"▁둘러싸고":13560,"5,":13561,"더라":13562,"▁조선시대":13563,"▁유학생":13564,"▁기장":13565,"▁라틴":13566,"▁1930":13567,"▁중재":13568,"사업본부":13569,"▁하에":13570,"▁법원은":13571,"▁없으면":13572,"▁토픽":13573,"▁공동주택":13574,"▁소감을":13575,"▁국악":13576,"▁연산":13577,"▁얻는":13578,"▁마침내":13579,"▁정부에서":13580,"창의":13581,"▁92":13582,"▁대개":13583,"▁노선을":13584,"인들에게":13585,"▁데려":13586,"▁장군":13587,"▁일어나는":13588,"▁명령을":13589,"▁안정적으로":13590,"▁않다고":13591,"▁상해":13592,"시절":13593,"▁한명":13594,"년전":13595,"전투":13596,"론의":13597,"▁때리는":13598,"▁이재용":13599,"▁신문은":13600,"▁약물":13601,"▁지고":13602,"세기에":13603,"▁신상":13604,"▁전일대비":13605,"▁워낙":13606,"▁토끼":13607,"하기가":13608,"▁떨어뜨":13609,"▁매몰":13610,"▁반해":13611,"▁상처를":13612,"값은":13613,"볼라":13614,"팅을":13615,"▁'3":13616,"▁국영":13617,"▁전투기":13618,"▁기간은":13619,"▁바이러":13620,"▁김종인":13621,"▁형태를":13622,"▁재편":13623,"보라":13624,"프란시스코":13625,"kW":13626,"글라":13627,"▁권장":13628,"▁신청한":13629,"▁새누리당의":13630,"재단은":13631,"attach":13632,"▁이한":13633,"▁탐사":13634,"자료사진":13635,"▁최저임금":13636,"▁엑스":13637,"▁있겠":13638,"▁저작권":13639,"▁허가를":13640,"▁애플은":13641,"▁부친":13642,"이므로":13643,"▁마쓰":13644,"▁주둔":13645,"▁수질":13646,"▁고객은":13647,"천구":13648,"▁일원":13649,"뉴스는":13650,"▁노력할":13651,"▁의원도":13652,"영리":13653,"▁수요를":13654,"▁설문조사":13655,"▁1920":13656,"▁월간":13657,"1@":13658,"4,":13659,"'☞":13660,"아라":13661,"▁신당":13662,"▁엑스포":13663,"▁이상은":13664,"▁뜬":13665,"▁김윤":13666,"▁실리콘":13667,"▁앞으로는":13668,"▁인근에서":13669,"▁볼륨":13670,"▁대략":13671,"▁개인이":13672,"트에":13673,"결과를":13674,"▁결정하는":13675,"항에":13676,"▁총기":13677,"해군":13678,"▁블라":13679,"▁0.5%":13680,"영향":13681,"▁정권의":13682,"SM":13683,"몬드":13684,"▁금액을":13685,"▁말씀을":13686,"yo":13687,"사진을":13688,"스트로":13689,"...‘":13690,"▁코레일":13691,"▁말았다":13692,"▁차량에":13693,"▁승용":13694,"날레":13695,"▁적용된다":13696,"▁91":13697,"▁작가는":13698,"▁보도했습니다":13699,"미한":13700,"박사":13701,"LTE":13702,"검색":13703,"▁수소":13704,"▁팔레":13705,"▁탐방":13706,"▁속으로":13707,"▁대학에":13708,"코어":13709,"▁외곽":13710,"▁엽":13711,"▁이노":13712,"▁코오롱":13713,"tem":13714,"▁머무":13715,"▁속한":13716,"미르":13717,"▁귀가":13718,"▁현지에서":13719,"▁투자자들이":13720,"▁갓":13721,"▁경제협력":13722,"▁메신저":13723,"▁증가에":13724,"▁은평":13725,"▁쟁점":13726,"▁푸틴":13727,"▁연구팀은":13728,"▁마포":13729,"▁쿠바":13730,"▁기간보다":13731,"돈을":13732,"협회가":13733,"▁구체적":13734,"▁단호":13735,"▁상표":13736,"▁티셔츠":13737,"통신이":13738,"▁마땅":13739,"▁막판":13740,"쇼핑몰":13741,"▁개발이":13742,"▁드러내":13743,"▁든다":13744,"무용":13745,"▁조영":13746,"▁정책의":13747,"?’":13748,"▁다할":13749,"▁출제":13750,"▁실시해":13751,"▁창원시":13752,"▁반값":13753,"Tomain":13754,"▁수원시":13755,"TemplateType":13756,"(+":13757,"▁속옷":13758,"▁교정":13759,"▁홍삼":13760,"성적":13761,"▁toMain":13762,"▁한국전력":13763,"▁날짜":13764,"▁힐링":13765,"▁RPG":13766,"▁비난했다":13767,"주에서":13768,"count":13769,"▁확인된":13770,"▁해병대":13771,"기자본":13772,"▁나은":13773,"▁임박":13774,"관리에":13775,"▁포스터":13776,"je":13777,"▁기술력을":13778,"이명박":13779,"▁교차":13780,"▁각자":13781,"▁물려":13782,"▁정상적인":13783,"▁전문가들이":13784,"련의":13785,"▁권영":13786,"▁야마":13787,"\"(":13788,"GDP":13789,"▁성균관":13790,"만화":13791,"▁아스":13792,"▁se":13793,"▁변환":13794,"침을":13795,"▁주식형":13796,"불교":13797,"났으며":13798,"▁결과로":13799,"▁방북":13800,"▁민감":13801,"▁처방":13802,"실장은":13803,"▁곳도":13804,"▁선언한":13805,"사우":13806,"▁깔끔":13807,"▁힘들다":13808,"▁운영된다":13809,"▁갇":13810,"희롱":13811,"▁침수":13812,"이치":13813,"헬스":13814,"PO":13815,"용량":13816,"▁대명":13817,"▁특성상":13818,"▁필요할":13819,"my":13820,"마감":13821,"▁이식":13822,"하마":13823,"해지":13824,"아메리카":13825,"▁당기순이익은":13826,"레저":13827,"두를":13828,"▁Top":13829,"▁주식방송":13830,"▁저축":13831,"▁참전":13832,"▁최장":13833,"▁Asiae":13834,"총회에서":13835,"▁AsiaeTV":13836,"▁부자가":13837,"▁키우는":13838,"저히":13839,"상황을":13840,"▁톰":13841,"tive":13842,"▁뚝":13843,"▁방식이":13844,"▁'2016":13845,"명품":13846,"21@":13847,"▁급감":13848,"▁전체가":13849,"▁랜":13850,"막이":13851,"▁판매하고":13852,"▁이천":13853,"▁경희":13854,"▁고스란히":13855,"▁끝으로":13856,"▁일대에":13857,"공약":13858,"욕장":13859,"▁떠났다":13860,"▁부산지역":13861,"▁학교에서":13862,"▁약화":13863,"▁보아":13864,"▁정전":13865,"▁국가정보":13866,"▁개발과":13867,"▁부총리":13868,"▁입었다":13869,"월을":13870,"▁현대건설":13871,"▁않는다고":13872,"시행":13873,"▁센트":13874,"▁도시의":13875,"▁업무보고":13876,"▁다름":13877,"▁폭이":13878,"▁구조조":13879,"▁위치한다":13880,"세안":13881,"수단":13882,"주영":13883,"활동에":13884,"▁성남시":13885,"안타":13886,"▁것이라며":13887,"▁반려":13888,"▁재활용":13889,"▁한쪽":13890,"▁노력하고":13891,"지휘":13892,"▁가파":13893,"▁레이싱":13894,"▁모집한다":13895,"▁못했던":13896,"▁안고":13897,"▁저질":13898,"▁스카이":13899,"켓몬":13900,"격으로":13901,"조리":13902,"게임즈":13903,"면세점":13904,"10-":13905,"▁늘면서":13906,"▁답변을":13907,"▁쇄신":13908,"▁들어온":13909,"▁객실":13910,"▁국회가":13911,"▁안으로":13912,"▁인터뷰를":13913,"▁전동차":13914,"▁확보했다":13915,"▁나도":13916,"▁가까워":13917,"▁노동조합":13918,"▁주파수":13919,"스톱":13920,"▁반란":13921,"▁1.3":13922,"▁전투에서":13923,"▁샀":13924,"▁부회장이":13925,"▁1971":13926,"▁수성":13927,"▁주유소":13928,"▁오직":13929,"억원이다":13930,"▁배터":13931,"▁컨셉":13932,"▁타워":13933,"▁명으로":13934,"특별자치":13935,"▁파크":13936,"정권":13937,"▁들은":13938,"▁빚어":13939,"▁적도":13940,"개동":13941,"에서다":13942,"▁계획은":13943,"▁세련된":13944,"▁당해":13945,"▁짓고":13946,"번호를":13947,"▁목표가":13948,"▁101":13949,"산과":13950,"플루엔":13951,"▁고장":13952,"▁삼성전자와":13953,"▁제도가":13954,"▁대의":13955,"색으로":13956,"▁숨졌다":13957,"▁당국의":13958,"▁이탈리아의":13959,"▁서울역":13960,"▁노숙":13961,"▁청취":13962,"드린다":13963,"센터장":13964,"▁집으로":13965,"▁전제":13966,"한국경제":13967,"cc":13968,"▁의원에":13969,"▁사용했다":13970,"▁주목받고":13971,"head":13972,"▁솔루션을":13973,"▁기쁨":13974,"▁달러로":13975,"▁임무를":13976,"▁제주시":13977,"하이닉스":13978,"▁은하":13979,"러스터":13980,"사이버":13981,"▁여건":13982,"▁종업":13983,"▁어디까지":13984,"▁참가했다":13985,"▁부유":13986,"히지":13987,"▁나면":13988,"▁전작":13989,"▁기여한":13990,"대사관":13991,"▁시선을":13992,"▁금융권":13993,"▁재킷":13994,"▁헤지":13995,"▁같아요":13996,"▁연면적":13997,"▁아찔":13998,"▁맞았다":13999,"▁잇달아":14000,"발생":14001,"값을":14002,"▁부진한":14003,"였다고":14004,"셨다":14005,"집단":14006,"▁댄스":14007,"▁중진":14008,"▁준비한":14009,"▁호수":14010,"▁확정된":14011,"▁각국의":14012,"회사를":14013,"비법":14014,"▁늦은":14015,"미노":14016,"드립니다":14017,"▁최영":14018,"▁1900":14019,"▁밀접":14020,"▁아라":14021,"▁어쩌":14022,"▁고성능":14023,"▁현대모비스":14024,"▁합법":14025,"롬비아":14026,"카드를":14027,"▁by":14028,"SJ":14029,"▁홍성":14030,"위성":14031,"특수":14032,"▁패러다":14033,"연봉":14034,"con":14035,"▁수분":14036,"▁잊지":14037,"▁치고":14038,"▁양해각서":14039,"▁국가안보":14040,"▁특징을":14041,"▁Ltd":14042,"▁학위를":14043,"오일":14044,"코는":14045,"▁그중":14046,"▁받으":14047,"▁재외":14048,"백만":14049,"▁날을":14050,"link":14051,"▁활성화에":14052,"ax":14053,"위생":14054,"▁생태계":14055,"▁전락":14056,"▁석사":14057,"▁떠나는":14058,"▁양보":14059,"▁연애":14060,"▁한라":14061,"여객":14062,"금리가":14063,"▁낯":14064,"문제를":14065,"오토":14066,"▁다를":14067,"균형":14068,"검사를":14069,"▁하루에":14070,"▁민주당의":14071,"▁사용되고":14072,"▁공급이":14073,"▁진출한":14074,"▁국방부는":14075,"▁이젠":14076,"▁받으면":14077,"▁구는":14078,"▁처형":14079,"▁가처분":14080,"끄러":14081,"쾌한":14082,"트랙":14083,"▁특허를":14084,"▁개최하고":14085,"▁석방":14086,"▁시작된다":14087,"▁고지":14088,"▁요양":14089,"▁태어":14090,"▁김한길":14091,"▁말도":14092,"▁발부":14093,"▁수단":14094,"▁1968":14095,"▁수산물":14096,"4·":14097,"▁날이":14098,"정보통신":14099,"론가":14100,"▁안팎의":14101,"▁연인":14102,"▁기준금리를":14103,"효과가":14104,"▁축적":14105,"▁삼국":14106,"▁증진":14107,"동성":14108,"▁변형":14109,"법안":14110,"▁3.5":14111,"▁환자는":14112,"▁유감":14113,"▁법칙":14114,"▁성과가":14115,"▁브루":14116,"▁맡게":14117,"▁가지는":14118,"▁공청":14119,"▁노스":14120,"▁드물":14121,"▁숨져":14122,"▁출발해":14123,"▁달성했다":14124,"▁여러가지":14125,"▁개념을":14126,"▁공약을":14127,"졌기":14128,"▁계획에":14129,"구글":14130,"▁소재를":14131,"▁인재를":14132,"▁까닭":14133,"퍼드":14134,"직에":14135,"▁감사의":14136,"▁캐주얼":14137,"마에":14138,"KBS":14139,"▁발대":14140,"▁안보리":14141,"▁고개를":14142,"론에":14143,"▁오일":14144,"▁재선":14145,"▁홈페이지에서":14146,"▁Best":14147,"음의":14148,"▁듣는":14149,"▁임차":14150,"▁불편한":14151,"▁전라북도":14152,"답게":14153,"▁중고차":14154,"▁아이들을":14155,"]“":14156,"인하":14157,"▁투기":14158,"▁맺었다":14159,"렌지":14160,"손실":14161,"4%)":14162,"▁남서":14163,"AIST":14164,"▁리스트":14165,"▁소개하는":14166,"가을":14167,"▁연맹":14168,"지사가":14169,"▁최우선":14170,"았을":14171,"▁자유무역협정":14172,"▁교역":14173,"▁실시된":14174,"▁환경부":14175,"▁제재를":14176,"만원까지":14177,"▁땅을":14178,"ner":14179,"▁고립":14180,"▁앵커멘트":14181,"8%)":14182,"▁죄송":14183,"ary":14184,"석으로":14185,"▁경고했다":14186,"업이":14187,"▁변수":14188,"▁과목":14189,"협동조합":14190,"워즈":14191,"▁주춤":14192,"▁비키니":14193,"▁시점에서":14194,"int":14195,"▁찍어":14196,"▁운영해":14197,"▁거기":14198,"이었으며":14199,"▁장면을":14200,"▁민주당이":14201,"위반":14202,"독일":14203,"▁핀테크":14204,"ug":14205,"▁그와":14206,"▁컨센":14207,"▁마라톤":14208,"▁생각했다":14209,"▁제목으로":14210,"▁갤럭시노트":14211,"6%)":14212,"BA":14213,"성기":14214,"▁아파트는":14215,"▁장교":14216,"▁주장에":14217,"▁남북관계":14218,"▁의미하는":14219,"▁한도":14220,"▁판매량이":14221,"석과":14222,"품이":14223,"▁르노삼성":14224,"▁신흥국":14225,"▁자사의":14226,"▁화장실":14227,"여건":14228,"핫클릭":14229,"▁정보는":14230,"되었는데":14231,"▁딴":14232,"▁분담":14233,"▁1940":14234,"▁일종이다":14235,"▁컨퍼런스":14236,"팩트":14237,"생생":14238,"확대":14239,"▁1.0":14240,"▁붓":14241,"신라":14242,"▁대회를":14243,"▁억울":14244,"박쥐":14245,"한국의":14246,"▁남산":14247,"msnet":14248,"┤│":14249,"쳤고":14250,"▁컬렉션":14251,"▁1963":14252,"▁검정":14253,"▁6,":14254,"판은":14255,"▁대공":14256,"▁6%":14257,"촉진":14258,"▁느끼고":14259,"▁미혼":14260,"▁소나":14261,"▁서서히":14262,"▁1977":14263,"솔린":14264,"▁확인하는":14265,"▁제기된":14266,")》":14267,"He":14268,"▁3~5":14269,"▁견제":14270,"▁월세":14271,"▁이벤트도":14272,"▁최고위원은":14273,"▁높인":14274,"ack":14275,"아카데미":14276,"▁국내총생산":14277,"로우":14278,"▁연쇄":14279,"▁건강에":14280,"▁양식":14281,"▁치명":14282,"▁예정돼":14283,"가전":14284,"만금":14285,"▁라면":14286,"▁권력을":14287,"▁양호한":14288,"▁원활한":14289,"▁아파트를":14290,"▁관련해서는":14291,"▁명명":14292,"▁제치고":14293,"▁중점을":14294,"▁주택담보대출":14295,"호와":14296,"▁교토":14297,"▁모습은":14298,"▁뽐":14299,"베스":14300,"▁온천":14301,"▁적용된":14302,"▁아버지가":14303,"NEW":14304,"▁행렬":14305,"▁다행히":14306,"▁사업이다":14307,"▁납입":14308,"▁최대주주":14309,"상품권":14310,"일으":14311,"유니":14312,"▁군사적":14313,"▁매매내역":14314,"▁설치되어":14315,"▁바꿨":14316,"▁벤츠":14317,"▁시작되는":14318,"▁과천":14319,"▁정해진":14320,"▁공간으로":14321,"▁늘릴":14322,"크가":14323,"르지오":14324,"▁당대표":14325,"창조경제":14326,"대금":14327,"버린":14328,"▁배를":14329,"▁햄":14330,"▁점검하고":14331,"▁설치한":14332,"▁무덤":14333,"수수료":14334,"▁손해를":14335,"▁해경":14336,"됐기":14337,"모두":14338,"▁숨지고":14339,"▁우려도":14340,"current":14341,"▁맘":14342,"▁오마이뉴스":14343,"▁공동체":14344,"넥스":14345,"▁미루":14346,"▁좋고":14347,"▁성분이":14348,"유기":14349,"▁입맛":14350,"▁이사는":14351,"▁사형":14352,"▁토로":14353,"▁시작되었다":14354,"▁디스크":14355,"▁로스앤젤":14356,"산업은":14357,"▁기구":14358,"▁현수":14359,"합을":14360,"▁투수":14361,"왔습니다":14362,"▁UHD":14363,"▁지키고":14364,"▁강화에":14365,"▁1969":14366,"▁전당대회":14367,"텃밭":14368,"받게":14369,"▁계곡":14370,"▁효율적으로":14371,"▁번에":14372,"▁퇴출":14373,"예비":14374,"공간을":14375,"▁내보":14376,"▁일어날":14377,"▁할지":14378,"▁개원":14379,"▁눈길":14380,"▁업체에":14381,"▁않겠다는":14382,"초등학교는":14383,"▁남성은":14384,"▁공영":14385,"Mo":14386,"▁과감":14387,"해달라":14388,"▁앞바다":14389,"버랜드":14390,"▁무엇이":14391,"▁외교통상":14392,"컴퍼니":14393,"▁되길":14394,"▁강하다":14395,"지정":14396,"▁찬반":14397,"▁8%":14398,"▁수업을":14399,"▁일어났다":14400,"▁있었다는":14401,"▁소통을":14402,"▁쾌적한":14403,"]※":14404,"버거":14405,"예고":14406,"▁대부분을":14407,"▁개발된":14408,"▁돌아오":14409,"(?)":14410,"▁달콤":14411,"▁민정수석":14412,"▁0.2%":14413,"▁연계한":14414,"▁쓰지":14415,"▁한파":14416,"국회의":14417,"▁지난해에는":14418,"▁조경":14419,"▁국정농":14420,"▁연예뉴스":14421,"주류":14422,"▁힙":14423,"▁세계일보":14424,"▁이견":14425,"User":14426,"▁1948":14427,"달러로":14428,"제일제":14429,"파라치":14430,"▁문화의":14431,"▁물량을":14432,"▁찔":14433,"▁잃고":14434,"연수원":14435,"▁시험을":14436,"박람":14437,"▁마찰":14438,"년부터는":14439,"▁일상생활":14440,"▁풋":14441,"제이":14442,"▁배추":14443,"▁나들이":14444,"▁취지로":14445,"▁김원":14446,"▁하다가":14447,"▁아버지는":14448,"스프":14449,"▁행사로":14450,"터의":14451,"▁침략":14452,"▁강의를":14453,"▁장관의":14454,"▁러브":14455,"▁국장":14456,"▁환경이":14457,"▁마련된다":14458,"▁인류":14459,"ory":14460,"▁핵심은":14461,"나노":14462,"▁1.2":14463,"▁이해를":14464,"▁뱀":14465,"▁법령":14466,"▁식민지":14467,"링을":14468,"▁주한미":14469,"▁사운드":14470,"▁금융감독원":14471,"7%)":14472,"▁알코올":14473,"▁일정으로":14474,"북한의":14475,"천명":14476,"▁명에":14477,"▁탄압":14478,"디움":14479,"수도권":14480,"▁코미디":14481,"디아라비아":14482,"ANC":14483,"INT":14484,"▁열풍":14485,"▁당시에는":14486,"▁공무원연금":14487,"성공":14488,"에르":14489,"▁부가가":14490,"▁자녀를":14491,"▁걸림":14492,"▁window":14493,"▁졸업생":14494,"▁줄기세포":14495,"해줄":14496,"▁예술의":14497,"▁하기도":14498,"▁CH":14499,"▁내용에":14500,"ud":14501,"분할":14502,"▁Pro":14503,"▁나이가":14504,"▁서비스에":14505,"▁상한가":14506,"▁자신에게":14507,"▁뽑아":14508,"▁도착한":14509,"▁이후의":14510,"▁민속":14511,"▁삼고":14512,"실천":14513,"▁다이아":14514,"▁살펴보고":14515,"준호":14516,"▁소아":14517,"▁좁은":14518,"▁부드럽":14519,"▁제출했다":14520,"▁효능":14521,"▁일으켜":14522,"▁외화":14523,"무늬":14524,"▁편리한":14525,"▁나카":14526,"▁아르바이트":14527,"▁북동":14528,"RT":14529,"▁경기는":14530,"두는":14531,"▁국회를":14532,"우지":14533,"▁승차":14534,"▁가나":14535,"▁음력":14536,"▁일본과":14537,"기간에":14538,"▁문화가":14539,"▁교육과정":14540,"▁뻗":14541,"진료":14542,"▁조속히":14543,"▁부하":14544,"▁비극":14545,"▁일로":14546,"▁카운":14547,"▁교수와":14548,"▁버리고":14549,"공사의":14550,"▁남아있":14551,"▁촬영한":14552,"▁램":14553,"▁자격을":14554,"판에서":14555,"컨벤션":14556,"년형":14557,"트럼프":14558,"▁달에":14559,"▁두려워":14560,"반대":14561,"회째":14562,"▁나누어":14563,"UN":14564,"▁자립":14565,"▁종결":14566,"▁국가를":14567,"▁나빠":14568,"장한":14569,"▁서해안":14570,"위원장의":14571,"▁문제도":14572,"▁엔진을":14573,"손해":14574,"▁상세":14575,"▁요청을":14576,"▁대전시":14577,"▁소장은":14578,"▁용이":14579,"현주":14580,"▁불만":14581,"▁키즈":14582,"집에서":14583,"▁true":14584,"▁자궁":14585,"▁아이스":14586,"▁확산되고":14587,"▁아픔":14588,"경쟁력":14589,"앵커멘트":14590,"병으로":14591,"▁이곳에":14592,"비즈니스":14593,"▁공룡":14594,"▁사라진":14595,"▁서초동":14596,"▁호소했다":14597,"▁락":14598,"▁신기술":14599,"채무":14600,"▁경기침":14601,"▁있었기":14602,"▁중앙은행":14603,"변을":14604,"▁인종":14605,"▁키워드":14606,"▁원작":14607,"▁베이비":14608,"대부":14609,"아지":14610,"기만":14611,"▁두께":14612,"▁신청하면":14613,"구치":14614,"▁늘리":14615,"▁물고":14616,"▁박태":14617,"▁\"\"3":14618,")(":14619,"▁줬":14620,"▁김홍":14621,"▁우위를":14622,"▁증상을":14623,"▁부풀":14624,"▁총회":14625,"▁어린이들이":14626,"경민":14627,"▁갤러리":14628,"▁플라스틱":14629,"rc":14630,"엔진":14631,"▁시켜":14632,"한나라":14633,"분은":14634,"▁주체":14635,"▁회피":14636,"▁위원장의":14637,"난을":14638,"▁레저":14639,"덩이":14640,"▁악용":14641,"▁전달하는":14642,"▁정우":14643,"▁TF":14644,"서에서":14645,"▁때문이라고":14646,"▁진지":14647,"▁액세서":14648,"DS":14649,"교도":14650,"게이트":14651,"상선":14652,"현진":14653,"▁사태에":14654,"▁정하고":14655,"▁유병언":14656,"▁판매한":14657,"▁차별화":14658,"텍은":14659,"▁여부가":14660,"▁자외선":14661,"감으로":14662,"분류":14663,"▁외국계":14664,".50":14665,"▁하나를":14666,"▁스코틀랜드":14667,"시나요":14668,"2@":14669,"유는":14670,"자다":14671,"플랜":14672,"대책을":14673,"▁위해서다":14674,"▁450":14675,"▁주민의":14676,"▁실질적으로":14677,"▁상하":14678,"▁전력을":14679,"▁행정자치":14680,"▁오해":14681,"▁보충":14682,"▁여배우":14683,"▁출퇴근":14684,"내손안의":14685,"▁권익":14686,"▁연비":14687,"▁전달하고":14688,"▁민사":14689,"▁국제적":14690,"2.":14691,"▁제의":14692,"▁냉장고":14693,"▁주무":14694,"▁시점에":14695,"▁자산운용":14696,"연료":14697,"정희":14698,"▁답답":14699,"▁이겨":14700,"▁발생한다":14701,"미안":14702,"티는":14703,"▁고래":14704,"▁라이트":14705,"▁촛불집":14706,"▁보금자리":14707,"무선":14708,"▁이재명":14709,"▁증가해":14710,"▁페이지":14711,"▁것인데":14712,"▁시신을":14713,"▁SBSCNBC":14714,"냐는":14715,"▁팀장":14716,"▁대회의실에서":14717,"▁녹취":14718,"▁휴식":14719,"▁종합적으로":14720,"▁채소":14721,"▁청정":14722,"공학과":14723,"지기도":14724,"▁야당이":14725,"▁구축해":14726,"▁넘어선":14727,"▁간편하게":14728,"라클":14729,"▁페루":14730,"미애":14731,"▁국어":14732,"레나":14733,"위치":14734,"화성":14735,"▁분양가":14736,"▁명확히":14737,"▁정도는":14738,"되었지만":14739,"▁포함되어":14740,"▁쿨":14741,"▁돌아와":14742,"▁일시적으로":14743,"병우":14744,"부대표":14745,"커머스":14746,"▁작곡가":14747,"우리나라":14748,"▁후보자의":14749,"예를":14750,"▁연세":14751,"▁탑재한":14752,"골드":14753,"▁강구":14754,"▁어떨":14755,"▁추기":14756,"▁105":14757,"▁온다":14758,"gin":14759,"▁굳이":14760,"▁ma":14761,"모터쇼":14762,"▁베이스":14763,"▁금감원은":14764,"▁교장":14765,"▁매치":14766,"조사에":14767,"▁넉":14768,"▁감동":14769,"▁경영권":14770,"▁Se":14771,"수산물":14772,"▁공간이":14773,"▁흐르는":14774,"▁공제":14775,"▁진상규":14776,"▁제일모직":14777,"▁증액":14778,"▁주장한":14779,"></":14780,"EF":14781,"합동":14782,"김재":14783,"▁만료":14784,"▁밑돌":14785,"▁협력사":14786,"▁누리과정":14787,"▁현대증권":14788,"▁스타일을":14789,"▁아닙니다":14790,"억원대":14791,"▁외국인의":14792,"▁줄을":14793,"▁추세다":14794,"MZ":14795,"메이드":14796,"개와":14797,"▁함수":14798,"▁개선될":14799,"▁낡":14800,"▁최근에":14801,"▁커졌다":14802,"▁나눈":14803,"▁얘기가":14804,"▁삽입":14805,"▁없던":14806,"데스크":14807,"공자":14808,"▁신학":14809,"▁포인트를":14810,"포로":14811,"▁나름":14812,"▁요새":14813,"사자":14814,"개교":14815,"운다":14816,"▁양육":14817,"연계":14818,"▁거짓말":14819,"▁초부터":14820,"▁증권방송":14821,"▁불확실성이":14822,"▁농축":14823,"▁직원을":14824,"시에는":14825,"▁미국인":14826,"▁정세균":14827,"▁유적":14828,"족의":14829,"▁덜어":14830,"▁남성의":14831,"▁조사가":14832,"▁2,000":14833,"기준을":14834,"▁손꼽":14835,"체제를":14836,"시피":14837,"증은":14838,"▁SC":14839,"▁재확인":14840,"▁세계대전":14841,"교환":14842,"▁종편":14843,"▁교육의":14844,"▁비전을":14845,"▁경쟁률을":14846,"문으로":14847,"▁판결이":14848,"중견":14849,"cut":14850,"▁수호":14851,"▁참가하는":14852,"노이":14853,"▁산출":14854,"상인":14855,"▁1962":14856,"롭고":14857,"▁산맥":14858,"▁반영된":14859,"▁1∼":14860,"▁불필요한":14861,"▁실수요":14862,"어떤":14863,"▁서비스로":14864,"!!]":14865,"▁대법관":14866,"▁신입생":14867,"관리공단":14868,"▁항해":14869,"상이다":14870,"▁미국으로":14871,"량과":14872,"▁영향은":14873,"▁돕고":14874,"▁0.7":14875,"▁1.7":14876,"▁@":14877,"시도":14878,"▁증여":14879,"▁중대한":14880,"▁독립운동":14881,"▁바이올":14882,"▁행정구역":14883,"성장을":14884,"▁국외":14885,"▁내놓을":14886,"걸음":14887,"▁합창":14888,"▁\"\"4":14889,"▁반발하고":14890,"▁불러일으":14891,"취재":14892,"▁국적":14893,"ence":14894,"▁거기에":14895,"▁고수들의":14896,"▁220":14897,"▁월요일":14898,"▁학사":14899,"▁속보이는":14900,"▁성수":14901,"Op":14902,"▁ᄀ":14903,"▁고추":14904,"▁돌며":14905,"났지만":14906,"▁면허":14907,"카는":14908,"▁결산":14909,"▁구성원":14910,"베리아":14911,"▁험":14912,"▁김남":14913,"~200":14914,"그리스":14915,"▁똑같은":14916,"▁정부서울":14917,"ath":14918,"▁소모":14919,"하러":14920,"▁엔화":14921,"▁헬기":14922,"isplay":14923,"▁개봉한":14924,"▁제휴를":14925,"▁직권":14926,"▁산타":14927,"▁받았으며":14928,"워치":14929,"환율":14930,"▁중증":14931,"▁바다의":14932,"(25":14933,"▁살리기":14934,"집에":14935,"▁반납":14936,"▁실수":14937,"▁들면":14938,"▁공정한":14939,"▁서울에":14940,"▁추진을":14941,"▁구속기소":14942,"▁故":14943,"▁유독":14944,"▁경쟁력이":14945,"산림":14946,"지방선거":14947,"신도":14948,"▁본관은":14949,"▁자랑한다":14950,"▁대조":14951,"▁오지":14952,"▁없어서":14953,"▁비박":14954,"reak":14955,"▁텍사스":14956,"차와":14957,"티오":14958,"양성":14959,"센터의":14960,"업계는":14961,"▁등장한다":14962,"▁코스피는":14963,"테네":14964,"렉시트":14965,"폰을":14966,"▁세르":14967,"▁정보기술":14968,"▁최근까지":14969,"매각":14970,"비한":14971,"▁상품권":14972,"▁국회의장":14973,"주세요":14974,"▁초기에":14975,"▁시내버스":14976,"▁IBK":14977,"▁거뒀다":14978,"▁관계에":14979,"▁켄":14980,"▁귀환":14981,"▁먹거리":14982,"▁강조하고":14983,"6,":14984,"▁기성":14985,"▁자존":14986,"▁실력을":14987,"▁꼬집었다":14988,"디에":14989,"▁영화의":14990,"▁합의가":14991,"▁기준에":14992,"▁유치를":14993,"▁공유하고":14994,"▁일방적으로":14995,"벽을":14996,"▁김미":14997,"▁안녕":14998,"퇴직":14999,"▁과제를":15000,"암동":15001,"▁운반":15002,"▁자식":15003,"▁꼼꼼히":15004,"▁금융시장":15005,"▁불가능한":15006,"한도":15007,"▁dd":15008,"▁돋보":15009,"▁멋진":15010,"▁박기":15011,"▁불이익":15012,"▁않기로":15013,".09":15014,"▁경북도":15015,"▁조기에":15016,"▁가능하게":15017,"▁찾아가는":15018,"▁이명":15019,"▁나라가":15020,"가슴":15021,"자유구역":15022,"9@":15023,"▁불과한":15024,"매도":15025,"출판":15026,"▁미쓰":15027,"▁암호":15028,"렸지만":15029,"▁바라보는":15030,"▁보컬":15031,"옵니다":15032,"▁아모레퍼시픽":15033,"▁끊이지":15034,"(-1":15035,"▁김씨":15036,"▁체결하고":15037,"▁혁신적인":15038,"▁1/":15039,"▁출현":15040,"강을":15041,"12)":15042,"▁가죽":15043,"달러에":15044,"이사장":15045,"▁인수를":15046,"▁원로":15047,"▁확산을":15048,"우의":15049,"치아":15050,"▁어선":15051,"▁음란":15052,"일에도":15053,"▁업무에":15054,"▁눈물을":15055,"▁근무하는":15056,"▁환경에서":15057,"▁정병":15058,"구조를":15059,"▁국제공항":15060,"▁투신":15061,"▁이용객":15062,"▁고위급":15063,"~15":15064,"베트남":15065,"▁쏘나타":15066,"동포":15067,"▁생겼다":15068,"▁보러가기":15069,"고요":15070,"체국":15071,"▁친일":15072,"▁잠수함":15073,"▁깨끗한":15074,"▁시상식":15075,"▁우량":15076,"비트":15077,"▁럭셔":15078,"▁가솔린":15079,"▁적자를":15080,"▁가입한":15081,"▁나뉘어":15082,"▁진술을":15083,"▁첼":15084,"▁스캔":15085,"▁위상을":15086,"▁하도급":15087,"▁나뉜다":15088,"▁순찰":15089,"▁일본을":15090,"▁란":15091,"▁행정안전":15092,"▁날인":15093,"▁핑크":15094,"▁할부":15095,"▁향토":15096,"로마":15097,"치다":15098,"▁라이선":15099,"▁달린":15100,"▁벌어졌다":15101,"den":15102,"▁준비가":15103,"상한":15104,"▁이름의":15105,"▁출시했다고":15106,"논란":15107,"────────":15108,".0%)":15109,"▁실장은":15110,"▁중앙일보":15111,"CA":15112,"▁이번주":15113,"레이터":15114,"▁돌아왔다":15115,"▁7,":15116,"▁시뮬":15117,"▁고기압":15118,"▁소설가":15119,"공인":15120,"들기":15121,"▁양극":15122,"▁CG":15123,"▁이전의":15124,"▁전에는":15125,"▁제천":15126,"▁세력이":15127,"▁김제":15128,"▁입소":15129,"▁분위기다":15130,"▁높을":15131,"▁시대가":15132,"▁신고가":15133,"▁상징하는":15134,"▁호전":15135,"▁상당수":15136,"▁한동안":15137,"제국":15138,"▁로맨":15139,"▁사업장":15140,"▁경위를":15141,"▁비정상":15142,"▁인원":15143,"미로":15144,"병의":15145,"▁투자에":15146,"▁감자":15147,"▁옵션":15148,"▁와이파이":15149,"▁학생은":15150,"▁박세":15151,"▁일주":15152,"▁피할":15153,"▁소개한다":15154,"▁촌":15155,"가야":15156,"특정":15157,"▁구원":15158,"방한":15159,"NEWS":15160,"MORPG":15161,"▁이끈":15162,"▁방문을":15163,"▁이끌었다":15164,"벅스":15165,"클린":15166,"▁보이스":15167,"▁법인세":15168,"▁분야는":15169,"▁제품과":15170,"▁기탁":15171,"▁박모":15172,"▁공연이":15173,"▁차량은":15174,"▁0.6":15175,"▁하도록":15176,"선도":15177,"▁밝힐":15178,"▁자리가":15179,"(21":15180,"▁인하여":15181,"▁재무장관":15182,"주식투자대회":15183,"면은":15184,"▁계속될":15185,"▁자치단체":15186,"▁여왕":15187,"▁정차":15188,"▁카르":15189,"네마":15190,"▁자부":15191,"라이브":15192,"▁하우스":15193,"▁많을":15194,"▁법원이":15195,"▁신분으로":15196,"선거관리":15197,"▁청사":15198,"ript":15199,"발전을":15200,"▁만들어졌다":15201,"▁IBM":15202,"면접":15203,"▁건설을":15204,"▁버려":15205,"▁대사관":15206,"▁컨벤션":15207,"▁산업단지":15208,"▁우즈":15209,"▁추격":15210,"학교를":15211,"▁회생":15212,"브로드":15213,"위크":15214,"▁청와대가":15215,"▁분야별":15216,"▁의미다":15217,"정밀":15218,"▁분석하고":15219,"▁고유의":15220,"▁오디오":15221,"전도":15222,"표가":15223,"▁박탈":15224,"▁애국":15225,"▁애널리스트":15226,"▁권위":15227,"▁금리는":15228,"▁아이의":15229,"ByUser":15230,"elComment":15231,"▁tartgetEl":15232,"elCommentByUser":15233,"ian":15234,"▁잡을":15235,"▁분석됐다":15236,"▁산학협력":15237,"▁여성들이":15238,"처가":15239,"▁산은":15240,"▁펑":15241,"영국":15242,"▁앤드":15243,"시설과":15244,"▁동성애":15245,"인포":15246,"▁가족을":15247,"▁효과는":15248,"ree":15249,"▁예매":15250,"▁이희":15251,"▁표현을":15252,"▁가능하고":15253,"들께":15254,"▁방식은":15255,"▁지역과":15256,"▁스포":15257,"▁의견도":15258,"▁사우디아라비아":15259,"프린":15260,"▁경기장":15261,"사령부":15262,"▁만나볼":15263,"▁요한":15264,"▁기대가":15265,"▁유류":15266,"MAIN":15267,"시간은":15268,"▁압력을":15269,"▁얽":15270,"▁증설":15271,"▁매매비법":15272,"공동체":15273,"고시":15274,"▁독거":15275,"▁뒤에는":15276,"▁요금제":15277,"▁사물인터넷":15278,"업의":15279,"▁고창":15280,"▁2.4":15281,"업체들이":15282,"▁떨어지고":15283,"▁쿠데":15284,"▁브리핑에서":15285,"상가":15286,"운을":15287,"~11":15288,"▁체질":15289,"▁1965":15290,"▁온실가스":15291,"산에서":15292,"전자의":15293,"▁기술의":15294,"▁부장판사":15295,"EB":15296,"버리":15297,"▁미주":15298,"▁쌍용차":15299,"▁주도한":15300,"▁신촌":15301,"▁자사주":15302,"▁시스템은":15303,"이것":15304,"▁특화된":15305,"▁상식":15306,"▁차이나":15307,"서민":15308,"시경":15309,"▁법원에":15310,"▁사진과":15311,"▁1964":15312,"만개":15313,"예약":15314,"▁수중":15315,"▁자유를":15316,"▁자신감을":15317,"디스크":15318,"▁프랑크":15319,"▁퇴근":15320,"섬유":15321,"기관을":15322,"▁시의회":15323,"▁흑인":15324,"▁재판을":15325,"평군":15326,"▁코레":15327,"▁한국형":15328,"으로의":15329,"테크노":15330,"▁정리해":15331,"▁계층":15332,"▁영화는":15333,"▁오늘과":15334,"MP":15335,"▁경성":15336,"▁두는":15337,"▁인형":15338,"▁에디션":15339,"▁내세워":15340,"▁차원":15341,"▁총무":15342,"▁대덕":15343,"▁이곳은":15344,"간접":15345,"▁韓":15346,"부양":15347,"▁침묵":15348,"▁몰고":15349,"▁초에":15350,"스케":15351,"▁혹시":15352,"라디오":15353,"▁생각에":15354,"▁최소한":15355,"▁시일":15356,"▁셔":15357,"▁De":15358,"절차를":15359,"▁정권을":15360,"▁파란":15361,"▁국민적":15362,"▁빛으로":15363,"▁1967":15364,"▁이르렀다":15365,"타지":15366,"클래스":15367,"▁지키기":15368,"▁예방을":15369,"▁최첨단":15370,"▁체제로":15371,"▁샌프란시스코":15372,"▁화면을":15373,"media":15374,"▁소상공인":15375,"▁광교":15376,"주의적":15377,"▁요청한":15378,"▁월스트리트":15379,"요즘":15380,"▁미래의":15381,"▁부지에":15382,"▁국방장관":15383,"▁하겠다는":15384,"옵션":15385,"시켜야":15386,"▁황우여":15387,"▁벗어":15388,"▁여의":15389,"일이다":15390,"플랜트":15391,"게이":15392,"ies":15393,"▁서울을":15394,"▁켈":15395,"대중":15396,"▁고양이":15397,"▁공급을":15398,"▁전형적인":15399,"▁정보보호":15400,"▁젤":15401,"▁할당":15402,"산업을":15403,"▁취할":15404,"▁놀라운":15405,"▁플랫폼을":15406,"2(":15407,"VD":15408,"▁고혈압":15409,"▁유나이":15410,"▁항소심":15411,"▁더욱이":15412,"▁생생한":15413,"▁이럴":15414,"▁걸리는":15415,"▁아버지의":15416,"하락":15417,"▁유선":15418,"심사를":15419,"▁사실이다":15420,"▁비치":15421,"▁시원한":15422,"▁전달할":15423,"▁보류":15424,"▁휘발유":15425,"▁주최하고":15426,"업은":15427,"▁사장을":15428,"책이":15429,"▁올랐고":15430,"▁부산에서":15431,"▁룰":15432,"▁이효":15433,"보전":15434,"부정":15435,"▁대입":15436,"▁벚꽃":15437,"▁있겠다":15438,"트렌드는":15439,"년제":15440,"▁충당":15441,"▁대포":15442,"피부":15443,"','":15444,"▁민영":15445,"▁조립":15446,"\"\"\",\"":15447,"▁마찬가지다":15448,"산업이":15449,"▁서둘러":15450,"Categor":15451,"▁비로":15452,"▁주장한다":15453,"▁길게":15454,"▁모르겠다":15455,"▁예상되고":15456,"해당":15457,"상공회의소":15458,"▁자세로":15459,"▁현황을":15460,"▁바쁜":15461,"▁수익률은":15462,"▁최고기온은":15463,"▁쿼":15464,"▁원자로":15465,"param":15466,"yn":15467,"▁소극":15468,"▁발언은":15469,"],":15470,"▁렉":15471,"▁득점":15472,"▁정읍":15473,"▁BBC":15474,"림이":15475,"친화":15476,"▁어긋":15477,"▁대강당에서":15478,"▁한계를":15479,"▁내부의":15480,"▁화폐":15481,"▁교통안전":15482,"즈와":15483,"▁신공항":15484,"▁위대한":15485,"▁쏠리고":15486,"▁백제":15487,"주의의":15488,"태원":15489,"▁카라":15490,"▁식사를":15491,"호영":15492,"네티즌":15493,"▁독자의":15494,"기업은":15495,"▁타이완":15496,"▁징수":15497,"▁지니고":15498,"식당":15499,"▁사죄":15500,"▁기록이":15501,"여수":15502,"▁탐지":15503,"▁톡톡":15504,"▁피자":15505,"강좌":15506,"▁초록":15507,"blog":15508,"▁개최된다":15509,"메디":15510,"방학":15511,"(22":15512,"▁국책":15513,"▁대책이":15514,"▁언제나":15515,"▁게임에":15516,"▁유기농":15517,"▁캐릭터를":15518,"재의":15519,"▁출력":15520,"▁입지를":15521,"▁출시할":15522,"▁'2014":15523,"▁불렀다":15524,"▁자격증":15525,"수용":15526,"eng":15527,"PD":15528,"▁중에서는":15529,"▁강서구":15530,"▁아들을":15531,"▁적용되는":15532,"▁봐도":15533,"만인":15534,"▁전남도":15535,"카를":15536,"▁앞세워":15537,"▁리베":15538,"▁치료제":15539,"▁기록하는":15540,"search":15541,"중기":15542,"▁파기":15543,"NY":15544,"▁쉼":15545,"▁냉각":15546,"load":15547,"▁일하고":15548,"엄마":15549,"비용을":15550,"▁농구":15551,"▁첫번째":15552,"아들":15553,"(23":15554,"▁병사":15555,"▁수행할":15556,"포스코":15557,"▁증가했다고":15558,"▁영세":15559,"▁실정이다":15560,"어링":15561,"▁에르":15562,"▁편안한":15563,"▁소리가":15564,"거리에서":15565,"TomainInfoLayer":15566,"▁마비":15567,"▁서남":15568,"▁감수":15569,"▁대지":15570,"▁전염":15571,"▁역할이":15572,"▁업체를":15573,"니스탄":15574,"▁1300":15575,"▁콜롬비아":15576,"▁해가":15577,"▁등장했다":15578,"▁부총리는":15579,"▁간담회에서":15580,"신당":15581,"▁옛날":15582,"매체":15583,"▁차입":15584,"▁여론이":15585,"▁오류":15586,"프리미":15587,"▁빠졌다":15588,"▁초등학교이다":15589,"▁꾸려":15590,"▁달해":15591,"▁줬다":15592,"스테이트":15593,"▁앱스토어":15594,"▁협정":15595,"ram":15596,"▁강북":15597,"▁당진":15598,"▁감사를":15599,"▁이어서":15600,"▁제한적":15601,"▁내용이다":15602,"▁정기적으로":15603,"SDS":15604,"▁다루는":15605,"▁트렌드":15606,"▁문자메시":15607,"▁람":15608,"▁실버":15609,"▁인문학":15610,"▁소비자들에게":15611,"▁립":15612,"▁대한민국을":15613,"▁이철":15614,"·3":15615,"▁턴":15616,"동계올림픽":15617,"▁박진":15618,"렸다는":15619,"▁성장에":15620,"실질":15621,"▁게임트렌드는":15622,"eil":15623,"▁발견된다":15624,"▁아나운서":15625,"▁필립":15626,"▁주에":15627,"선관":15628,"▁비닐":15629,"▁끝나는":15630,"모상":15631,"원대":15632,"▁사회가":15633,"gg":15634,"▁구축하고":15635,"▁헐":15636,"사퇴":15637,"제리":15638,"▁학생들":15639,"포토뉴스":15640,"▁드디어":15641,"드름":15642,"▁그루":15643,"▁과태료":15644,"-9":15645,"dom":15646,"▁감추":15647,"▁주의가":15648,"▁활동하는":15649,"▁결과적으로":15650,"레는":15651,"▁강화하기":15652,"▁미야":15653,"검찰청":15654,"▁신경을":15655,"▁치료가":15656,"▁Nae":15657,"▁전체적인":15658,"▁박준":15659,"해서는":15660,"▁국민은행":15661,"▁앓고":15662,"▁피해는":15663,"군에서":15664,"▁삼성증권":15665,"▁소나무":15666,"주거":15667,"▁cThe":15668,"▁참가자들이":15669,"▁환자를":15670,"▁영월":15671,"▁청춘":15672,"성모":15673,"▁송금":15674,"▁지지하는":15675,"렉트":15676,"은희":15677,"관제":15678,"▁난다":15679,"▁수상자":15680,"매입":15681,"▁미녀":15682,"▁역사의":15683,"▁어울리는":15684,"▁Naeil":15685,"▁실력":15686,"병원은":15687,"▁240":15688,"▁요소를":15689,"▁이산화":15690,"▁연방준비제도":15691,"하길":15692,"당국의":15693,"▁건전한":15694,"▁2030":15695,"▁열애":15696,"▁것임을":15697,"▁만들어야":15698,"▁돌연":15699,"▁펼친다":15700,"LH":15701,"▁북측":15702,"▁이룬다":15703,"7,":15704,"등에":15705,"▁풀려":15706,"명씩":15707,"▁확보에":15708,"▁심어":15709,"▁청담":15710,"▁속한다":15711,"▁양질의":15712,"▁덤":15713,"▁생산을":15714,"차게":15715,"▁추방":15716,"▁충남도":15717,"▁삼성그룹":15718,"▁나주":15719,"▁선점":15720,"▁의사가":15721,"▁레인":15722,"▁주민이":15723,"▁트위터에":15724,"속도":15725,"▁'4":15726,"▁전도":15727,"▁엘리베이터":15728,"▁비결은":15729,"▁공안":15730,"▁군대":15731,"▁주총":15732,"어머니":15733,"것도":15734,"▁분이":15735,"▁침공":15736,"기업과":15737,"▁시설이":15738,"▁남부지방":15739,"▁여지가":15740,"▁펄":15741,"▁낮다":15742,"▁전승":15743,"▁지역에서는":15744,"공사를":15745,"▁원리":15746,"'));":15747,"▁국세":15748,"▁1800":15749,"▁구름이":15750,"▁공습":15751,"▁네팔":15752,"▁디자인과":15753,"▁정복":15754,"▁내비게이션":15755,"▁FA":15756,"▁전하는":15757,"글로":15758,"▁역동":15759,"▁전술":15760,"▁풍경":15761,"▁학문":15762,"▁조형":15763,"▁카자":15764,"▁사퇴를":15765,"▁1:1":15766,"▁나서야":15767,"▁상품이":15768,"▁중남미":15769,"▁포함하고":15770,"-15":15771,"▁판정":15772,".1%,":15773,"▁미달":15774,"렸으며":15775,"성능":15776,"▁김효":15777,"▁생계":15778,"nocut":15779,"▁국정감사":15780,"등한":15781,"▁야스":15782,"▁신부":15783,"▁실물":15784,"▁부평":15785,"▁프로야구":15786,"▁수익률이":15787,"뉴스투데이":15788,"로워":15789,"형사":15790,"▁발전소":15791,"지속":15792,"여개의":15793,"벤츠":15794,"▁팬택":15795,"▁역사와":15796,"▁단단":15797,"▁웨스트":15798,"▁장점을":15799,"▁클리":15800,"▁일반인":15801,"▁국가에서":15802,"▁곤란":15803,"▁다중":15804,"▁발견했다":15805,"▁입문":15806,"곳은":15807,"▁단계적으로":15808,"▁등극":15809,"▁\"\"2":15810,"▁학생을":15811,"▁대관":15812,"뉴스로":15813,"ild":15814,"▁안전관리":15815,".9%,":15816,"▁직영":15817,"▁엄격한":15818,"로라":15819,"▁속출":15820,"▁주장은":15821,"▁숨어":15822,"▁세종로":15823,"▁캠퍼스":15824,"▁동계올림픽":15825,"▁야기":15826,"▁의무화":15827,"▁개정안은":15828,"▁방법이다":15829,"▁우정":15830,"▁근거가":15831,"▁김일성":15832,"▁남경필":15833,"▁성희롱":15834,"▁한시":15835,"판으로":15836,"▁도매":15837,"▁분주":15838,"플루엔자":15839,"▁9000":15840,"▁코엑스에서":15841,"▁걷기":15842,"▁전진":15843,"▁1946":15844,"▁위치에":15845,"▁정몽준":15846,"▁눈으로":15847,"량에":15848,"▁그리스의":15849,"▁분해":15850,"▁희망으로":15851,"박주":15852,"불이":15853,"▁행보를":15854,"▁군이":15855,"▁편지":15856,"▁수행하는":15857,"▁출발했다":15858,"▁오케스트라":15859,"신경":15860,"쿠스":15861,"ens":15862,"lnb":15863,"▁열람":15864,"▁바디":15865,"▁주상":15866,"▁프로그래":15867,"시기":15868,"▁동호":15869,"▁모드":15870,"▁명의로":15871,"▁생명을":15872,"▁겐":15873,"반응":15874,"▁가자":15875,"▁안희정":15876,"▁어쩔":15877,"▁피의":15878,"▁대주주":15879,"▁센트럴":15880,"운송":15881,"▁무게를":15882,"활용":15883,"▁심해":15884,"▁젠":15885,"▁자세를":15886,"위즈":15887,"▁정신적":15888,"▁기어":15889,"▁마라":15890,"▁전역":15891,"▁음식점":15892,"▁이용이":15893,"if":15894,"사다":15895,"▁전세가":15896,"▁대비한":15897,"▁겪은":15898,"▁DJ":15899,"▁반면에":15900,"▁외국어":15901,"파일":15902,"▁자치구":15903,"인한":15904,"▁리버":15905,"면과":15906,"현직":15907,".8%,":15908,"▁인터넷을":15909,"▁상승에":15910,"▁있다가":15911,"▁모리":15912,"▁헌신":15913,"▁배경을":15914,"파티":15915,"▁후기":15916,"침해":15917,"▁대회에":15918,"▁통과한":15919,"▁시민들에게":15920,"학대":15921,"형태":15922,"▁안경":15923,"▁느낌이":15924,"▁인프라를":15925,"▁등록을":15926,"▁줄줄이":15927,"▁다른기사":15928,"▁시중은행":15929,"▁심사위원":15930,"~40":15931,"▁주최한":15932,"▁무거운":15933,"▁데이트":15934,"▁박씨는":15935,"스포":15936,"park":15937,"▁미래창조과학부":15938,"▁오키":15939,"▁매니저":15940,"▁분석도":15941,"▁사교육":15942,"▁전해졌습니다":15943,"어질":15944,"편에":15945,"▁듀얼":15946,"▁고민을":15947,"▁망명":15948,"▁최근의":15949,"▁대학에서":15950,"▁겪었다":15951,"▁디자인이":15952,"중단":15953,"▁계파":15954,"▁에도":15955,"▁취한":15956,"▁발음":15957,"▁교수를":15958,"▁농식품":15959,"렸을":15960,"▁하얀":15961,"졌으나":15962,"▁법원의":15963,"▁x":15964,"▁기저":15965,"▁LIG":15966,"▁종목이":15967,"DR":15968,"▁기소됐다":15969,"고려":15970,"▁난방":15971,"▁EBS":15972,"증가":15973,"▁부재":15974,"▁매뉴얼":15975,"러브":15976,"▁나눴":15977,"▁처음부터":15978,"▁저렴하게":15979,"비서":15980,"▁공연은":15981,"▁끝났다":15982,"▁사업과":15983,"유진":15984,"▁당당":15985,"▁의상":15986,"▁세단":15987,"▁웃음":15988,"▁이슈가":15989,"▁시장에서는":15990,"▁로그":15991,"단계로":15992,"▁퀸":15993,"잡이":15994,"▁스파이":15995,"▁산간":15996,"▁구성하는":15997,"(24":15998,"SDI":15999,"▁도청":16000,"▁보라":16001,"드래곤":16002,"▁총장이":16003,"▁익산":16004,"▁국가에":16005,"▁잡기":16006,"차이나":16007,"▁기념식":16008,"이날":16009,"철을":16010,"르다":16011,"▁강제로":16012,"▁당정":16013,"▁표현한":16014,"▁1961":16015,"▁맛과":16016,"▁크로스":16017,"▁시행하고":16018,"▁아이스크":16019,"nocutnews":16020,"모금":16021,"사채":16022,"TP":16023,"피크":16024,"▁이관":16025,"▁전망도":16026,"우를":16027,"▁그로":16028,"너지를":16029,"전략을":16030,"▁최고급":16031,"▁공직선거":16032,"았으나":16033,"LA":16034,"▁그러다":16035,"▁참석자들이":16036,"▁골프장":16037,"▁적용했다":16038,"▁document":16039,"공감":16040,"▁정서":16041,"▁임종":16042,"▁휴양":16043,"▁있거나":16044,"▁화재가":16045,"▁발표한다":16046,"▁상품의":16047,"▁본회의에서":16048,"인원":16049,"퓨팅":16050,"▁국무총리가":16051,"▁일축":16052,"▁점거":16053,"▁푸드":16054,"▁투자할":16055,"심에":16056,"min":16057,"▁재원":16058,"]‘":16059,"육성":16060,".5%,":16061,"▁개최를":16062,"▁미드":16063,"플레":16064,"▁흩":16065,"테이션":16066,"▁선택을":16067,"▁강풍":16068,"▁부른":16069,"트리온":16070,"사업과":16071,"▁조사할":16072,"▁죽음을":16073,"▁참석한다":16074,"▁나쁘":16075,"나가는":16076,"▁95%":16077,"▁바람을":16078,"으려고":16079,"▁CNN":16080,"▁들어설":16081,"▁보이지만":16082,"▁박병":16083,"국악":16084,"▁주름":16085,"▁심상정":16086,"현장에서":16087,"▁개발하는":16088,"▁공개됐다":16089,"▁사용자의":16090,"고양":16091,"▁빅토":16092,"▁다해":16093,"▁정책과":16094,"▁자기자본":16095,"▁순차적으로":16096,"목에":16097,"▁예의":16098,"▁많다는":16099,"▁철도역이다":16100,"▁비결":16101,"▁시드":16102,"년물":16103,"▁빚을":16104,"▁무척":16105,"분쟁":16106,"크래프트":16107,"▁건네":16108,"▁모텔":16109,"▁주사":16110,"▁견해":16111,"▁담합":16112,"andler":16113,"▁나눌":16114,"▁설립을":16115,"만기":16116,"▁유흥":16117,"▁고용노동부":16118,"▁권유":16119,"▁재가":16120,"나를":16121,"▁해를":16122,"▁개정을":16123,"▁상용화":16124,"▁그렇다고":16125,"'..":16126,"▁독재":16127,"▁피하기":16128,"알파클럽":16129,"▁개발했다":16130,"중개":16131,"▁감당":16132,"▁LNG":16133,"대기":16134,"▁생긴다":16135,"▁동문":16136,"시험을":16137,"▁않는다면":16138,"remove":16139,"▁여성가족":16140,"▁포함된다":16141,"▁개량":16142,"▁무궁":16143,"▁악재":16144,"▁명칭을":16145,"▁원내수석":16146,"▁침투":16147,"▁성관계":16148,"▁지원과":16149,"▁지난해에":16150,"uk":16151,"스코리아":16152,"▁기자간담회를":16153,"란트":16154,"▁브랜드가":16155,"소스":16156,"증으로":16157,"이크":16158,"▁절차가":16159,"▁일으키는":16160,"▁낙관":16161,"▁0.3%":16162,"▁1949":16163,"세계일보":16164,"▁인정하고":16165,"▁감성":16166,"▁차례에":16167,"▁받았던":16168,"▁달할":16169,"▁부도":16170,"요리":16171,"▁보물":16172,"▁체험을":16173,"▁하기로":16174,"▁나왔습니다":16175,"▁영주":16176,".2%,":16177,"▁인물로":16178,"▁계속되는":16179,"▁대학을":16180,"관장":16181,"▁미소":16182,"결의":16183,"그렇":16184,"무장":16185,"▁심포지엄":16186,"건물":16187,"▁농림수산":16188,"유리":16189,"으려는":16190,"보합":16191,"▁다툼":16192,"▁여야는":16193,"▁역사가":16194,"대성":16195,"곳으로":16196,"▁고등학생":16197,"▁헝그리앱":16198,"전드":16199,"▁첨가":16200,"▁당연":16201,"▁하여금":16202,"▁소주":16203,"▁스티브":16204,"집이":16205,"플로":16206,"▁고기":16207,"▁끝나고":16208,"▁사과를":16209,".7%,":16210,"▁방사성":16211,"도쿄":16212,"정수":16213,"▁본점":16214,"▁어디서":16215,"Is":16216,"▁배제할":16217,"▁장시간":16218,"▁넣은":16219,"▁정권교":16220,"조세":16221,"▁일컫":16222,"마니아":16223,"▁토마토":16224,"▁신기":16225,"승인":16226,"▁중이라고":16227,"농가":16228,"디는":16229,"통장":16230,"문화의":16231,"스타인":16232,"▁처리할":16233,"▁다스":16234,"▁동력":16235,"▁민관":16236,"▁존경":16237,"▁협동조합":16238,"▁터보":16239,"파파라치":16240,"▁식품의약품":16241,"되나":16242,"▁전성":16243,"▁보통주":16244,"말라":16245,"▁피터":16246,"▁필요성이":16247,"▁기동":16248,"▁1600":16249,"▁보도자료를":16250,"orld":16251,"▁만의":16252,".6%,":16253,"▁연기를":16254,"열이":16255,"종에":16256,"▁금전":16257,"▁주장했습니다":16258,"▁옴":16259,"▁\"“":16260,"▁아토":16261,"▁우세":16262,"▁자유로운":16263,"▁회장으로":16264,"윤정":16265,"▁넓혀":16266,"▁행성":16267,"공격":16268,"플렉스":16269,"▁눈높":16270,"존하는":16271,"▁시장과":16272,"▁지시했다":16273,"▁대수":16274,"▁비자금":16275,"▁런칭":16276,"▁하수":16277,"▁주의를":16278,"▁쓴다":16279,"▁중심이":16280,"▁하버드":16281,"▁퍼포먼스":16282,"반의":16283,"▁제시하고":16284,"이노베이션":16285,"▁1·2":16286,"▁부문에":16287,"▁부속":16288,"밖에도":16289,"▁비용은":16290,"▁대권":16291,"▁시그":16292,"▁영혼":16293,"량으로":16294,"쿠르":16295,"▁개교":16296,"▁뒤인":16297,"▁없었고":16298,"▁채널을":16299,"▁모르고":16300,"▁알렸다":16301,"▁사막":16302,"▁강조하는":16303,"▁도시를":16304,"▁플랜트":16305,"ire":16306,"호흡기":16307,"▁만만치":16308,"▁판단해":16309,"오전":16310,"▁추궁":16311,"▁계약이":16312,"80)":16313,"▁하니":16314,"▁첩":16315,"화제":16316,"anc":16317,"▁줄고":16318,"▁iOS":16319,"▁뭔가":16320,"▁오대":16321,"▁나이에":16322,"아무":16323,"▁용의자":16324,"▁되기도":16325,"▁지속되고":16326,"현동":16327,"▁주최하는":16328,"쓰고":16329,"▁장기적으로":16330,"▁아이콘":16331,"▁어두운":16332,"▁상반기에":16333,"▁회의실에서":16334,"▁등락":16335,"발사":16336,"▁교육청":16337,"▁싫어":16338,"▁헝가리":16339,"파트너":16340,"▁신의":16341,"▁착륙":16342,"▁뱃":16343,"div":16344,"▁것들이":16345,"세일":16346,"▁화해":16347,"▁세인트":16348,"슬라":16349,"▁선정돼":16350,"▁처벌을":16351,"▁상품이다":16352,"▁KDB":16353,"독한":16354,"위원장과":16355,"공립":16356,"반떼":16357,"▁문제다":16358,"주면":16359,"▁디저":16360,"▁악수":16361,"▁김현정":16362,"▁절차에":16363,"동네":16364,"이벤트":16365,"▁미수":16366,"▁정문":16367,"▁박람":16368,"했어요":16369,"▁경제부총리":16370,"▁최고위원회의에서":16371,"▁그걸":16372,"피는":16373,"▁경험과":16374,"▁프레임":16375,"▁토론을":16376,"▁단편":16377,"▁총력":16378,"▁판사":16379,"▁행태":16380,"단일":16381,"숭이":16382,"사고가":16383,"▁평범한":16384,"았다고":16385,"▁수익이":16386,"▁윤상":16387,"▁장이":16388,"▁시간당":16389,"▁이완구":16390,"▁기둥":16391,"▁미안":16392,"▁음원":16393,"▁다리를":16394,"▁지진이":16395,"근한":16396,"휴가":16397,"▁남기":16398,"▁아끼지":16399,"▁경제지표":16400,"▁VIP":16401,"No":16402,"비밀":16403,"▁본토":16404,"▁세력을":16405,"▁포즈를":16406,"▁자회사인":16407,"▁일조":16408,"▁표정":16409,"단체장":16410,"▁자본시장":16411,"선미":16412,"승민":16413,"▁부결":16414,"▁중추":16415,"▁저금리":16416,"▁활발히":16417,"▁감옥":16418,"▁국제사회의":16419,"도시로":16420,"▁사장의":16421,"▁전문기업":16422,"10)":16423,"▁지갑":16424,"▁가요":16425,"천의":16426,"▁ch":16427,"루미늄":16428,"▁불투명":16429,"▁출시한다고":16430,"▁드러낸":16431,"▁싶다면":16432,"병원에서":16433,"▁경과":16434,"▁닮은":16435,"▁메뉴를":16436,"났을":16437,"▁예로":16438,"▁치안":16439,"▁}).":16440,"▁방사선":16441,"▁조사는":16442,"▁펼치는":16443,"▁1966":16444,"▁업계에서는":16445,"▁혼란을":16446,"성향":16447,"▁내면":16448,"▁부모님":16449,"청원":16450,"▁발언에":16451,"운이":16452,"▁지배구조":16453,"▁인천국제공항":16454,"▁장갑":16455,"▁정권이":16456,"▁판사는":16457,"▁포스트":16458,"cr":16459,"▁멸망":16460,"끄럽":16461,"르며":16462,"지던":16463,"챌린":16464,".06":16465,"경선":16466,"▁반사":16467,"▁취항":16468,"▁하회":16469,"▁유권":16470,"▁프리미어":16471,"▁기습":16472,"▁강사":16473,"▁수출은":16474,"▁수준에서":16475,"▁해적":16476,"▁경제정책":16477,"vice":16478,"▁쉽다":16479,"les":16480,"▁다큐멘":16481,"▁키우":16482,"▁금메달을":16483,"▁출연한":16484,"(26":16485,"▁매립":16486,"9%)":16487,"책임자":16488,"▁가능하다는":16489,"▁설탕":16490,"▁이룰":16491,"▁로스앤젤레스":16492,"있어":16493,"▁신탁":16494,"▁하였고":16495,"▁탔":16496,"▁실린":16497,"▁창출을":16498,"지방법원":16499,"중의":16500,"Yes":16501,"▁감정을":16502,"▁국내에서는":16503,"▁대다수":16504,"조례":16505,"▁지중":16506,"▁회고":16507,"▁일으킬":16508,"▁자체적으로":16509,"PM":16510,"적십자":16511,"▁어머니는":16512,"라라":16513,"▁살짝":16514,"함으로":16515,"▁김영삼":16516,"▁바꾸고":16517,"▁차지한다":16518,"▁여가":16519,"증시파파라치":16520,"▁제네시스":16521,"커뮤니케이션":16522,"▁개조":16523,"▁소금":16524,"▁질병관리":16525,"▁용어":16526,"▁주축":16527,"▁터뜨":16528,"▁내부에":16529,"라기":16530,"업체를":16531,"▁시간과":16532,"▁조선의":16533,"어제":16534,"▁구매하는":16535,"달을":16536,"▁측면이":16537,"▁헌혈":16538,"▁국토교통부":16539,"▁비행기":16540,"▁선체":16541,"▁되돌아":16542,"▁전보다":16543,"9,":16544,"품으로":16545,"디넷":16546,"▁해남":16547,"▁늑":16548,"▁구성을":16549,"▁의무를":16550,"▁중심에":16551,"▁드라이브":16552,"▁제외하면":16553,"센스":16554,"더라고":16555,"▁al":16556,"▁발라":16557,"치킨":16558,"▁명성을":16559,"보에":16560,"▁기가":16561,"▁맡는다":16562,"도서":16563,"▁심야":16564,"▁인접해":16565,"▁과정은":16566,"피고":16567,"▁사연":16568,"메뉴":16569,"소니":16570,"▁보궐선거":16571,"▁배임":16572,"▁위협을":16573,"dy":16574,"개는":16575,"▁기대감을":16576,"▁적게":16577,"▁다목적":16578,"▁새누리":16579,"▁공식적인":16580,"▁박찬":16581,"comm":16582,"▁이용자가":16583,"▁이슈에":16584,"▁알려지지":16585,"르노":16586,"▁민선":16587,"▁국정농단":16588,"▁던져":16589,"▁우리금융":16590,"공무":16591,"구제":16592,"란도":16593,"▁사직":16594,"▁운수":16595,"▁잇단":16596,"▁잘라":16597,"▁20~30":16598,"▁고쳐":16599,"▁실제로는":16600,"▁고부가":16601,"교육지원":16602,"▁전략이다":16603,"▁깨고":16604,"▁아무도":16605,"fin":16606,"▁각계":16607,"▁자정":16608,"▁임명되었다":16609,"병은":16610,"▁장미":16611,"▁스티븐":16612,"▁견본":16613,"▁모른":16614,"▁뽀":16615,"대표이사":16616,"▁등기":16617,"▁열악한":16618,"▁키움":16619,"▁해에":16620,"▁백악관":16621,"▁수수료를":16622,"▁산업통상자원부":16623,"대박":16624,"▁철원":16625,"▁기상청":16626,"너무":16627,"문서":16628,"▁권오":16629,"SE":16630,"▁다음주":16631,"▁읽고":16632,"▁크기가":16633,"▁목표주가를":16634,"▁도입된":16635,"▁인체":16636,"▁조업":16637,"오드":16638,"▁혐의가":16639,"우로":16640,"▁부당한":16641,"▁막걸":16642,"▁허락":16643,"가면서":16644,"▁공부를":16645,"▁회의에":16646,"▁공유하는":16647,"▁장학금을":16648,"pa":16649,"▁사은":16650,"▁플러":16651,"▁빠르고":16652,"▁비춰":16653,"▁어업":16654,"화제의":16655,"IMF":16656,"▁업계는":16657,"▁활발하게":16658,"▁천문학":16659,"억원과":16660,"▁가습기":16661,"▁목표는":16662,"▁인사들이":16663,"청소":16664,"▁벤치":16665,"▁감독을":16666,"▁조정을":16667,"페어":16668,".08":16669,"▁시키":16670,"크리트":16671,"▁인출":16672,"▁최상의":16673,"▁호평을":16674,"총선":16675,"층으로":16676,".4%,":16677,"▁모양새":16678,"▁전환을":16679,"▁보도자료":16680,"▁선보이며":16681,"▁딸을":16682,"▁평안":16683,"▁꿈꾸는":16684,"▁조화를":16685,"▁노부":16686,"▁주도하는":16687,"▁블라디":16688,"리터":16689,"열에":16690,"▁동거":16691,"▁검토할":16692,"▁파트너십":16693,"▁역전":16694,"▁추대":16695,"▁색다른":16696,"▁서술":16697,"기능을":16698,"▁이보다":16699,"행한":16700,"▁속여":16701,"신청을":16702,"이거나":16703,"▁여객선":16704,"▁상원의":16705,"▁금리인상":16706,"▁퀄":16707,"▁과징금":16708,"▁기록했고":16709,"▁value":16710,"▁권역":16711,"▁커진":16712,"▁포위":16713,"▁됐고":16714,"▁효성":16715,".3%,":16716,"▁두바이":16717,"▁미스터":16718,"▁퍼져":16719,"▁학업":16720,"교육원":16721,"병헌":16722,"년동안":16723,"메리칸":16724,"▁걸렸다":16725,"▁자산을":16726,"▁한국관광":16727,"집중":16728,"▁당황":16729,"▁수납":16730,"지사는":16731,"▁예산은":16732,"필드":16733,"▁길이는":16734,"▁지원했다":16735,"▁시크":16736,"연장":16737,"First":16738,"ko":16739,"있던":16740,"▁본관":16741,"▁사양":16742,"▁참석할":16743,"▁닷":16744,"▁고마":16745,"▁중장":16746,"▁남원":16747,"▁부산일보사":16748,"▁소셜네트워크":16749,"투자자":16750,"▁감사원":16751,"▁기술적":16752,"급을":16753,"공사와":16754,"▁프로그램의":16755,"투자가":16756,"▁학생의":16757,"▁리처":16758,"▁걸그룹":16759,"▁자율주행":16760,"▁챔피언십":16761,"미세":16762,"▁개신":16763,"▁점진":16764,"▁모험":16765,"▁새겨":16766,"평가를":16767,"아시아나":16768,"▁반포":16769,"▁부러":16770,"▁태도":16771,"width":16772,"록을":16773,"▁걸맞":16774,"▁경찰서":16775,"▁대응하기":16776,"▁장례식장":16777,"▁라스":16778,"▁오렌지":16779,"▁게임이다":16780,"▁여성들의":16781,"▁직결":16782,"편성":16783,"▁들어오는":16784,"▁서강":16785,"▁게임이":16786,"회장은":16787,"▁공격적인":16788,"▁선택하는":16789,"▁타협":16790,"▁시트":16791,"▁저평가":16792,"개국에서":16793,"more":16794,"▁구입한":16795,"▁건물이":16796,"아침":16797,"종교":16798,"▁유보":16799,"▁물러나":16800,"▁소비에":16801,"▁조망":16802,"▁짙은":16803,"(27":16804,"담배":16805,"▁궁극":16806,"협력을":16807,"▁뺀":16808,"▁글로":16809,"▁시를":16810,"했다며":16811,"▁재정적":16812,"▁가족들이":16813,"▁뮤직비디오":16814,"단기":16815,"리던":16816,"리브":16817,"▁월평균":16818,"▁크다는":16819,"MHz":16820,"▁강정":16821,"▁장외":16822,"▁차관은":16823,"▁교육부는":16824,"▁유럽에서":16825,"▁점유율을":16826,"▁기자간담회에서":16827,"▁데에":16828,"▁공급할":16829,"▁유력한":16830,"▁흐름이":16831,"TML":16832,"▁속해":16833,"▁훔쳐":16834,"lit":16835,"▁문건":16836,"▁‘1":16837,"▁고생":16838,"▁영업정지":16839,"▁의료기기":16840,"인인":16841,"지방법":16842,"▁기능도":16843,"▁삼성은":16844,"▁표본":16845,"상거래":16846,"▁돼지고":16847,"▁지나면":16848,"▁우리에게":16849,"녹색":16850,"▁방침입니다":16851,"미국의":16852,"오면서":16853,"▁미세먼":16854,"▁웃도는":16855,".05":16856,"이었는데":16857,"한은":16858,"▁칼로":16859,"▁전망치":16860,"니를":16861,"변동":16862,"월이":16863,"ast":16864,"▁끌려":16865,"▁성주":16866,"발전소":16867,"▁이익이":16868,"▁인사가":16869,"▁클래스":16870,"▁위원장을":16871,"▁언덕":16872,"리지널":16873,"▁로이터":16874,"▁알리기":16875,"▁창간":16876,"▁폭을":16877,"▁늘었고":16878,"으론":16879,"▁벌일":16880,"▁만이다":16881,"▁이외의":16882,"▁있어도":16883,"▁이득":16884,"세데스":16885,"▁새만금":16886,"▁돌파했다":16887,"▁자산관리":16888,"이민":16889,"▁남미":16890,"▁법학":16891,"▁스트레스를":16892,"▁교향":16893,"▁신고했다":16894,"▁실습":16895,"▁그저":16896,"▁반입":16897,"▁정시":16898,"▁챔피언스":16899,"▁트로":16900,".200":16901,"▁년간":16902,"영의":16903,"크루":16904,"▁사료":16905,"▁결혼을":16906,"주의자":16907,"▁구매한":16908,"▁육성을":16909,"동반":16910,"Play":16911,"▁박희":16912,"아일랜드":16913,"지연":16914,"워싱턴":16915,"▁오늘도":16916,"Key":16917,"▁타깃":16918,"▁수단으로":16919,"▁나이로":16920,"hankook":16921,"▁접어들":16922,"이지리아":16923,"▁스피커":16924,"▁취약한":16925,"건강보험":16926,"정상회담":16927,"▁석유화학":16928,"▁사용되었다":16929,"▁홍천":16930,"▁단체는":16931,"▁ECB":16932,"▁과거에":16933,"▁띈":16934,"폭풍":16935,"▁불합":16936,"국정원":16937,"정부와":16938,"▁하반기에":16939,"▁후유":16940,"▁230":16941,"▁부통령":16942,"배치":16943,"▁주의해야":16944,"▁메탈":16945,"투자는":16946,"▁달리는":16947,"▁어워드":16948,"▁테스트를":16949,"▁늘어나면서":16950,"카의":16951,"▁연다고":16952,"지역본부":16953,"▁시리즈의":16954,"우미":16955,"▁실험을":16956,"▁사단법인":16957,">(":16958,"면역":16959,"▁성황":16960,"케이블":16961,"▁요르":16962,"▁위임":16963,"▁스페인의":16964,"IF":16965,"허브":16966,"▁목적을":16967,"소화":16968,"▁회담을":16969,"세탁":16970,"피싱":16971,"Copyrights":16972,"▁우라":16973,"월에도":16974,"스레":16975,"▁그레":16976,"돼지":16977,"▁문체":16978,"(28":16979,"아서":16980,"▁나폴":16981,"주의보가":16982,"신규":16983,"▁김관":16984,"▁국민과":16985,"▁명확한":16986,"▁학생과":16987,"▁case":16988,"스위":16989,"▁DS":16990,"▁기분":16991,"▁자발적":16992,"ich":16993,"▁밤에":16994,"▁어렵고":16995,"▁공장에서":16996,"'.":16997,"▁받기도":16998,"sbs":16999,"▁자생":17000,"▁증폭":17001,"](":17002,"정선":17003,"114":17004,"▁넘은":17005,"▁우려했다":17006,"용인":17007,"군인":17008,"정산":17009,"▁35%":17010,"▁끝나면":17011,"▁총력을":17012,"▁판단하고":17013,"▁변화와":17014,"▁정치가":17015,"▁조성된":17016,"▁소독":17017,"▁직원의":17018,"▁최선의":17019,"가공":17020,"▁그들":17021,"▁성장한":17022,"▁확대되고":17023,"▁보스턴":17024,"▁특징은":17025,"▁동남아시아":17026,"하듯":17027,"초를":17028,"▁다음에":17029,"▁달러의":17030,"▁동의를":17031,"▁일일이":17032,"▁줘":17033,"▁김세":17034,"▁밝히지":17035,"▁의장이":17036,"▁치러진":17037,"▁강력하게":17038,"▁아파트가":17039,"▁샐":17040,"▁매일경제":17041,"▁증가세를":17042,"패스":17043,"▁로열":17044,"동주":17045,"이종":17046,"리스타":17047,"▁발발":17048,"▁과거의":17049,"▁튜":17050,"▁싱크":17051,"▁break":17052,"▁취향":17053,"▁여대생":17054,"▁일련의":17055,"▁붙잡혔다":17056,"▁보이면서":17057,"스페":17058,"▁보고를":17059,"뮤직":17060,"보지":17061,"▁연이어":17062,"▁칭찬":17063,"▁거예요":17064,"▁비난을":17065,"▁생각할":17066,"▁주어진":17067,"▁칼럼":17068,"▁0.8":17069,"rep":17070,"▁서방":17071,"▁은폐":17072,"▁화천":17073,"검증":17074,"▁정도에":17075,"▁아이들에게":17076,"▁원형":17077,"▁튼튼":17078,"▁끄":17079,"중앙은행":17080,"▁서산":17081,"▁외치고":17082,"슨의":17083,"앞에":17084,"쿠라":17085,"▁단속을":17086,"▁말아야":17087,"▁수용할":17088,"▁정운":17089,"▁총리와":17090,"년에도":17091,"▁주먹":17092,"▁요구가":17093,"▁동방":17094,"▁건설사":17095,"연극":17096,"출입":17097,"헬로":17098,"▁재계":17099,"▁충북도":17100,"▁불가능하다":17101,"주당":17102,"▁교육은":17103,"▁공개할":17104,"▁추운":17105,"▁묻자":17106,"▁1,0":17107,"▁요청에":17108,"▁공백":17109,"▁내려진":17110,"▁열흘":17111,"▁그러자":17112,"▁기능은":17113,"▁데리고":17114,"▁된다면":17115,"▁IPTV":17116,"▁한국투자증권":17117,"▁묶어":17118,"▁고액":17119,"▁얻게":17120,"▁신개념":17121,"▁완전한":17122,"▁대기업의":17123,"▁자꾸":17124,"▁감안할":17125,"▁학교폭력":17126,"▁믿을":17127,"▁내용과":17128,"▁얼어":17129,"수익률":17130,"▁심의를":17131,"▁역으로":17132,"▁발매되었다":17133,"▁사무총장은":17134,"영이":17135,"클로":17136,"▁저서":17137,"적이었다":17138,"▁기점으로":17139,"▁명은":17140,"▁실어":17141,"▁확인되지":17142,"▁지방세":17143,"▁프로모션을":17144,"맥주":17145,"부도":17146,"▁지나지":17147,"▁곡을":17148,"Zero":17149,"▁참가자들은":17150,"▁근처에":17151,"▁김석":17152,"▁읽어":17153,"mb":17154,"▁해커":17155,"▁물가상승":17156,"▁보도입니다":17157,"했다면":17158,"IM":17159,"사망":17160,"인들을":17161,"▁기다리는":17162,"▁나치":17163,"▁평화를":17164,"ix":17165,"▁거치":17166,"▁상설":17167,"▁긴밀한":17168,"애니":17169,"▁당신":17170,"▁발명":17171,"뉴스팀":17172,"▁밝히는":17173,"▁시기가":17174,"계로":17175,"365":17176,"▁오른다":17177,"▁반응은":17178,"▁딜러":17179,"▁몰랐":17180,"▁흉기로":17181,"▁보고서에서":17182,"▁대동":17183,"▁못하도록":17184,"▁정상회담을":17185,"선대":17186,"노동자":17187,"▁미스":17188,"▁유재":17189,"▁대선에서":17190,"터로":17191,"프리미엄":17192,"▁입건했다":17193,"으면서도":17194,"▁조화":17195,"▁해석된다":17196,"▁결과다":17197,"hw":17198,"▁없었":17199,"전체":17200,"캠핑":17201,"인물":17202,"▁마그":17203,"▁진실을":17204,"▁내년에는":17205,"▁진단을":17206,"▁산다":17207,"▁찾아볼":17208,"2017":17209,"요원":17210,"utton":17211,"▁되기를":17212,"▁관리하고":17213,"▁시민들은":17214,"직업":17215,"오피스":17216,"▁전제로":17217,"▁향하는":17218,"▁당사에서":17219,"▁이화여대":17220,"▁마시는":17221,"▁서대문구":17222,"부자들에게":17223,"lin":17224,"졌는데":17225,"sy":17226,"▁출범한":17227,"▁이해하고":17228,".07":17229,"▁재즈":17230,"▁학교의":17231,"제어":17232,"최저":17233,"...1":17234,"▁조직의":17235,"▁마트":17236,"▁미네":17237,"▁순조":17238,"▁의정":17239,"▁파급":17240,"▁인명피해":17241,"김해":17242,"▁과제로":17243,"addClass":17244,"교부":17245,"아래":17246,"브란스":17247,"▁6·25":17248,"▁문의하면":17249,"▁아쿠":17250,"해지면서":17251,"▁자발적으로":17252,"▁낚시":17253,"▁세웠":17254,"▁한자":17255,"▁등록된":17256,"▁기아차는":17257,"▁드론":17258,"▁경제학":17259,"▁명예훼손":17260,"▁효율성을":17261,
[...]
